<unk>	0
<s>	0
</s>	0
�	-1.96533
��	-2.21747
���	-2.47025
����	-2.82035
�����	-3.19645
������	-3.56558
�������	-4.01289
һ	-4.13428
▁�	-4.2449
��������	-4.45681
▁��	-4.73021
ȥ	-4.88316
▁���	-4.88573
x	-4.96266
���������	-4.99249
Ҳ	-5.00743
ʦ	-5.22887
ֻ	-5.26203
֮	-5.30064
ߵ	-5.36891
ͷ	-5.44032
▁����	-5.44233
ɽ	-5.45619
ǰ	-5.47338
����������	-5.51152
▁	-5.53089
С	-5.54867
ȴ	-5.57554
ɮ	-5.6032
ģ	-5.6317
▁�����	-5.69389
ɦ	-5.75323
У	-5.77347
ô	-5.81094
ʥ	-5.81343
l	-5.83876
ס	-5.84467
Ҫ	-5.8532
֪	-5.88825
ţ	-5.93436
֣	-5.98598
ʮ	-6.00285
�����������	-6.0134
ǹ	-6.04394
ϣ	-6.05494
ߣ	-6.07116
ӣ	-6.09704
Ц	-6.09946
գ	-6.14209
ǣ	-6.17359
ã	-6.17436
ԣ	-6.17896
Щ	-6.20153
ͽ	-6.24848
Ȼ	-6.25849
Ϊ	-6.27613
ȡ	-6.28264
Σ	-6.31534
ң	-6.32452
ҵ	-6.32673
Ǹ	-6.33245
ħ	-6.35202
ֵ	-6.35256
▁������	-6.37457
ɳɮ	-6.37616
ƣ	-6.41111
ε	-6.44766
䣬	-6.45058
Ī	-6.4662
▁�������	-6.49376
ڣ	-6.50592
磬	-6.55112
������������	-6.55426
ص	-6.55606
е	-6.55942
Ů	-6.57115
ŵ	-6.57299
ɻ	-6.58737
ς	-6.59671
أ	-6.59847
û	-6.60825
ԭ	-6.61705
ܣ	-6.65548
л	-6.68714
Ǵ	-6.69093
ǧ	-6.70684
⣬	-6.73361
Ѱ	-6.76374
ף	-6.79703
jô	-6.81515
Ǻ	-6.8188
ա	-6.82053
٣	-6.82922
㣬	-6.84129
ּ	-6.86474
ǡ	-6.87154
ҡ	-6.87427
ֱ	-6.87472
ɣ	-6.91811
dz	-6.9376
ת	-6.93846
ľ	-6.94911
ս	-6.96292
ҹ	-6.96418
棬	-6.96696
ȣ	-6.97198
ѣ	-6.97956
δ	-6.9815
ġ	-6.9821
ߡ	-6.99231
ֽ	-6.99468
а	-6.99892
�������������	-7.0028
Ƕ	-7.0052
ĸ	-7.00617
ǵ	-7.01245
ϸ	-7.02785
ʯ	-7.03076
ի	-7.03776
ɳ	-7.03848
ɱ	-7.03853
⡣	-7.04157
ӡ	-7.04503
Զ	-7.07334
ۣ	-7.07525
죬	-7.08365
ʣ	-7.08647
Ե	-7.09447
▁һ	-7.1281
ǿ	-7.15578
飬	-7.1596
λ	-7.16495
Ū	-7.18497
͵	-7.18698
ڴ	-7.1967
ݣ	-7.19985
ӭ	-7.20419
ҽ	-7.22798
࣬	-7.24495
▁��������	-7.24675
▁ȴ	-7.25268
ӵ	-7.25454
μ	-7.25841
ǻ	-7.28019
ϡ	-7.28214
ִ	-7.28539
֡	-7.29248
꣬	-7.29596
Ҷ	-7.30997
š	-7.30997
ֲ	-7.3162
DZ	-7.32056
ޣ	-7.3206
Ұ	-7.33117
ƽ	-7.33234
Ը	-7.33391
ָ	-7.33395
á	-7.34223
æ	-7.34739
м	-7.34954
▁���������	-7.35926
ɫ	-7.36317
ᣬ	-7.38693
д	-7.39458
ֶ	-7.39842
ǽ	-7.39853
õ	-7.3995
Ƿ	-7.40179
κ	-7.40228
ڵ	-7.40987
ѽ	-7.42577
ײ	-7.43631
и	-7.43772
ȵ	-7.44015
ɹ	-7.44496
ú	-7.44834
Θ	-7.45015
ë	-7.4579
Ի	-7.45796
ж	-7.46206
㿴	-7.46206
Dz	-7.4622
ĺ	-7.46446
Ͼ	-7.48281
ү	-7.51877
ò	-7.53443
��������������	-7.53523
Ž	-7.55225
Ժ	-7.58419
к	-7.59354
ʤ	-7.60203
ɢ	-7.61245
Ⱥ	-7.62001
Ǽ	-7.62688
յ	-7.62688
Ҵ	-7.63173
㡣	-7.64151
˵�	-7.64719
ʩ	-7.65372
ء	-7.66136
ڶ	-7.66136
ԡ	-7.66639
Ա	-7.66639
Ӧ	-7.67259
Ķ	-7.68162
ں	-7.68674
ֳ	-7.69708
Լ	-7.69863
ɡ	-7.70229
룬	-7.70229
ʁ	-7.71279
ݷ	-7.71808
Ļ	-7.72178
L	-7.7234
߰	-7.73412
s	-7.73412
硣	-7.73412
ŭ	-7.73953
ơ	-7.74496
ɵ	-7.74756
㲻	-7.75043
ĵ	-7.75388
ù	-7.75434
ֹ	-7.75592
ۿ	-7.75592
r	-7.76145
ҩ	-7.767
ҳ	-7.77259
϶	-7.77259
Ϻ	-7.77259
Ͻ	-7.78386
Ƥ	-7.795
ط	-7.80092
顣	-7.801
ý	-7.81682
ɲ	-7.82035
Ԫ	-7.82038
߳	-7.82432
ó	-7.82988
ʧ	-7.83166
Ƶ	-7.84098
˫	-7.84899
Ź	-7.85427
▁ֻ	-7.85665
Բ	-7.86036
ı	-7.86036
�£�	-7.86386
˵��	-7.86524
ܡ	-7.8665
ɾ	-7.8665
й	-7.8665
վ	-7.8665
ƶ	-7.86762
װ	-7.86818
ڡ	-7.87267
Ĺ	-7.87888
Ϸ	-7.87888
ȫ	-7.88328
壬	-7.8834
ϼ	-7.88513
Գ	-7.88635
Ӳ	-7.8977
ұ	-7.89775
Һ	-7.89775
Ҿ	-7.90868
β	-7.91303
Դ	-7.91698
Ρ	-7.92565
Ҽ	-7.92789
Ż	-7.92918
ڹ	-7.93001
ҿ	-7.93001
Ӱ	-7.93255
Ǿ	-7.94028
ö	-7.94246
үү	-7.94431
Ʒ	-7.94511
߸	-7.94536
Ĵ	-7.94988
Թ	-7.94988
չ	-7.95261
ڿ	-7.95614
IJ	-7.95659
Ŷ	-7.95659
в	-7.96335
ޡ	-7.96335
־	-7.97015
˽	-7.9854
ڰ	-7.99084
䡣	-7.99084
档	-7.99084
裬	-7.99084
·��	-7.99147
ѡ	-8.0223
ݡ	-8.02631
ñ	-8.02631
ƹ	-8.04085
ð	-8.04382
ʥɮ	-8.04407
Ʋ	-8.04422
Ľ	-8.04765
졣	-8.04821
ü	-8.05024
ѹ	-8.0516
▁Ҳ	-8.05501
ڳ	-8.05512
Ŵ	-8.05561
ʡ	-8.05561
Ƴ	-8.06307
ڽ	-8.06307
ʫ	-8.06655
���������������	-8.06737
䡢	-8.07059
ƿ	-8.08177
ְ	-8.0858
ƶɮ	-8.09057
ӳ	-8.09349
ղ	-8.0935
١	-8.0935
▁ʦ	-8.0979
ø	-8.09941
Ͷ	-8.10504
ƾ	-8.10906
н	-8.10906
ض	-8.10906
ų	-8.10906
߲	-8.11693
˵	-8.11908
Խ	-8.12487
б	-8.12487
h	-8.14496
İ	-8.14906
ķ	-8.14907
Ű	-8.14907
ߺ	-8.15114
▁����������	-8.15302
ϻ	-8.16553
ֺ	-8.16553
Ȳ	-8.17386
ÿ	-8.17749
ͻ	-8.17813
ҷ	-8.18226
ٲ	-8.18226
仯	-8.18226
ź	-8.19022
ݵ	-8.19074
ֿ	-8.19928
з	-8.2166
ߴ	-8.2166
ܽ	-8.21896
ʨ	-8.22465
Χ	-8.23422
г	-8.23422
ȱ	-8.24797
˵���	-8.25175
ž	-8.25196
اٴ	-8.25216
�	-8.25536
▁�����������	-8.2716
Ծ	-8.27968
�˵	-8.28545
▁ȥ	-8.28823
ر	-8.28903
ꡣ	-8.28903
Ϣ	-8.30395
Ͱ	-8.30701
Ъ	-8.30799
о	-8.30799
ռ	-8.31343
˵����	-8.31362
ƻ	-8.31424
Ҹ	-8.3176
ɰ	-8.3176
Ȱ	-8.33711
Ѳ	-8.34633
·�	-8.34655
ն	-8.34702
ƥ	-8.34702
߶	-8.34702
▁ɮ	-8.34748
Ѹ	-8.35702
ַ	-8.36712
ع	-8.37725
롣	-8.37732
ѩ	-8.37732
ۡ	-8.38763
ڼ	-8.38763
ż	-8.39805
Ͳ	-8.39805
س	-8.39805
Ǯ	-8.40631
ɨ	-8.40793
Ѷ	-8.40857
߹	-8.40857
ϳ	-8.40857
ζ	-8.41921
Ÿ	-8.41921
ij	-8.4292
ز	-8.42996
η	-8.42997
ڷ	-8.42997
ű	-8.44083
簡	-8.44083
ܵ	-8.44083
·	-8.4508
ͳ	-8.45182
ѵ	-8.45182
وٴ	-8.45183
ڲ	-8.46293
ܰ	-8.46293
��˽	-8.46607
Ų	-8.47417
ݽ	-8.47417
ȷ	-8.48554
ջ	-8.49703
ڱ	-8.49703
̧ͷ	-8.5028
ȳ	-8.50866
ᡣ	-8.50866
ҧ	-8.51655
塣	-8.52041
칬	-8.52042
״	-8.52042
׳	-8.52792
غ	-8.53224
ͼ	-8.53226
Ѻ	-8.53233
ӱ	-8.53233
ؼ	-8.54437
ټ	-8.54437
컯	-8.54437
Է	-8.54437
����˽	-8.54539
�£���	-8.54587
�˵��	-8.55097
ɴ	-8.55199
Ʈ	-8.55613
ŷ	-8.55657
Ӿ	-8.55657
Ѫ	-8.5621
Ӷ	-8.56891
��£�	-8.57339
߷	-8.58142
����������������	-8.58898
�£��	-8.58919
֦	-8.58985
▁ͷ	-8.59231
ڻ	-8.59407
Ѿ	-8.59407
ϯ	-8.60259
֤	-8.60275
ٳ	-8.60689
ѳ	-8.60689
ӿ	-8.61988
۵	-8.61988
䣡	-8.61988
��˵	-8.63101
Ӻ	-8.63304
ӻ	-8.63304
عم	-8.63313
Ȫ	-8.64146
ק	-8.6557
ɸ	-8.65945
п	-8.65988
ӽ	-8.65988
Ⱦ	-8.65988
ٱ	-8.65989
ھ	-8.65989
����˽�	-8.66671
ȹ	-8.66696
ɺ	-8.67263
ѱ	-8.67358
ٽ	-8.67358
ι	-8.68747
ѻ	-8.68747
ش	-8.69674
ʢ	-8.69736
j	-8.69818
ӹ	-8.70053
Ƭ	-8.70156
ճ	-8.71584
շ	-8.71584
ɷ	-8.72912
ޱ	-8.73034
ȭ	-8.74006
Ү	-8.74504
ӷ	-8.75996
ٿ	-8.75997
ܲ	-8.75997
Ѵ	-8.75997
ؾ	-8.75997
▁ɽ	-8.76221
ױ	-8.77381
Ӵ	-8.77512
߱	-8.77512
ƴ	-8.77512
衣	-8.77512
Ӣ	-8.77512
ػ	-8.77512
▁С	-8.78874
ƺ	-8.79016
ѧ	-8.7905
ɶ	-8.7905
���˽	-8.80742
ؽ	-8.82127
þ	-8.822
��	-8.82624
��˼	-8.83655
Ƚ	-8.83813
ۇٴ	-8.83813
ĥ	-8.83813
㻹	-8.83813
▁֮	-8.84923
Ħ	-8.84924
ˮ�	-8.8545
ձ	-8.85452
▁ǰ	-8.86479
ρ	-8.87119
يٴ	-8.87123
˽�	-8.87328
ʬ	-8.88352
·���	-8.88704
w	-8.88814
��˽�	-8.89275
٤	-8.90097
ɿ	-8.90488
ٴ	-8.90532
Ͽ	-8.90538
�	-8.91763
ר	-8.91868
ˮ	-8.92218
Ȧ	-8.92292
۾	-8.92292
䲻	-8.92292
o	-8.93689
մ	-8.94078
▁�������������	-8.95533
ļ	-8.9584
ȸ	-8.95896
Կ	-8.95896
ٻ	-8.95896
پ	-8.95896
Ƽ	-8.95896
Ϳ	-8.95896
▁������������	-8.96724
��˵���	-8.97321
�ʹ	-8.97476
▁ʮ	-8.97651
Ĩ	-8.97748
۷	-8.97748
ȿ	-8.97748
ܴ	-8.97748
�˵�	-8.98038
�·��	-8.98225
ץ	-8.98782
ν	-8.99635
Ӽ	-8.99635
ܳ	-8.99635
θ	-8.99635
��˵�	-9.00413
▁ô	-9.01069
߯	-9.01114
Ω	-9.01132
ɼ	-9.01558
▁ɳɮ	-9.0325
ȼ	-9.03519
ͱ	-9.03519
ڸ	-9.03519
ƭ	-9.03519
���˵	-9.03769
�˽	-9.03937
·����	-9.047
��˵��	-9.05164
ѷ	-9.05519
ٹ	-9.05519
Ǭ	-9.05519
�˵���	-9.05892
���£�	-9.07073
˵�����	-9.07125
Ь	-9.0756
ӥ	-9.0756
콫	-9.0756
հ	-9.0756
ݹ	-9.0756
�¡�	-9.07693
����˽�������	-9.07845
ѿ	-9.09643
ɥ	-9.09643
ˮ��	-9.09725
���˼	-9.10312
˼	-9.10458
Ť	-9.11557
ȶ	-9.11771
磿	-9.11771
ξ	-9.11771
۲	-9.11771
ݳ	-9.11771
ة	-9.11771
ݶ	-9.11771
㣡	-9.11771
ݺ	-9.11771
�	-9.12779
▁Ҫ	-9.1291
ܻ	-9.13945
���	-9.1574
▁Щ	-9.16003
ԩ	-9.16167
ظ	-9.16167
ذ	-9.16167
۶	-9.18337
��̲�	-9.18401
պ	-9.18439
Я	-9.1844
Ӯ	-9.1844
ⳡ	-9.1844
�£����	-9.20366
ܱ	-9.20765
֧	-9.20765
�·�	-9.21913
ƫ	-9.22696
𡣡	-9.23146
ܹ	-9.23146
Ƹ	-9.23146
▁֪	-9.23953
˵������	-9.24142
γ	-9.25585
ٺ	-9.25585
۹	-9.25585
ܼ	-9.25585
棡	-9.25585
α	-9.25585
�£�����	-9.26143
���̫�	-9.277
��·��	-9.27742
ް	-9.28085
澭	-9.28085
��¡�	-9.29099
▁ʥ	-9.29157
▁Ī	-9.29368
�����˽�	-9.29703
˪	-9.30225
ݱ	-9.30645
䡷	-9.30649
ⲻ	-9.30649
���˵���	-9.31248
��ˮ	-9.31354
�̣���	-9.31364
�̫�	-9.31566
սս	-9.32404
��ˮ�	-9.32598
ư	-9.33281
լ	-9.33281
ո	-9.33281
ۻ	-9.33281
տ	-9.33281
۴	-9.33281
ţħ	-9.33575
�ˮ	-9.34647
�ʹ�	-9.34727
�ˮ�	-9.34825
�̲�	-9.35188
ʹ���	-9.3536
ؿ	-9.35983
ى	-9.35983
ܷ	-9.35983
צ	-9.35983
۱	-9.35983
ۼ	-9.35984
ݿ	-9.35984
㽫	-9.35984
���	-9.36264
ʹ	-9.36629
˵�������	-9.37209
̫�	-9.38182
▁ɦ	-9.38279
ܶ	-9.38761
ܺ	-9.38761
弓	-9.38761
겻	-9.38761
׽	-9.39061
�¡���	-9.40004
�˵����	-9.40266
Ŭ	-9.41071
ů	-9.41133
�ʿ��	-9.41234
粻	-9.41599
۽	-9.41618
ݻ	-9.41618
첻	-9.41619
��£��	-9.42795
������»	-9.42876
����˽���	-9.42928
▁ħ	-9.43885
ΰ	-9.4456
ݸ	-9.4456
Ϭ	-9.4456
Ѽ	-9.4456
㵹	-9.4456
Ũ	-9.4456
���˵�	-9.44788
�˽�	-9.4582
▁�˽	-9.46778
���˽�	-9.47401
y	-9.4759
ʹ�	-9.48596
��£���	-9.48628
߽	-9.49379
ˮ���	-9.49418
����	-9.49549
�	-9.49768
���£���	-9.50412
ܸ	-9.50715
ܿ	-9.50715
ݰ	-9.50715
磡	-9.50715
▁ǧ	-9.5104
����	-9.51525
▁ס	-9.52107
����˽��	-9.52263
��	-9.52955
Ȯ	-9.5365
��ʹ	-9.5394
Ȩ	-9.53941
ժ	-9.53941
붴	-9.53941
ݼ	-9.53941
볯	-9.53941
Т	-9.53941
·�����	-9.54072
�����»	-9.5467
�ͣ�	-9.54701
���˵��	-9.5556
����˵	-9.56765
����˽�����	-9.57232
ӯ	-9.57256
�˼	-9.57755
����̫�	-9.59322
�����˽	-9.59445
Ѩ	-9.60722
Ӫ	-9.60722
Ӭ	-9.60722
巽	-9.60722
ߥ	-9.60722
һӵ	-9.61275
�˵�����	-9.61541
�ʿ	-9.61756
��̫�	-9.62039
��·���	-9.62056
�ˮ��	-9.62429
�˻�	-9.62731
˽���	-9.63433
ͬ�	-9.64267
ܾ	-9.64294
Ϫ	-9.64294
Ʊ	-9.64294
ο	-9.64294
ςς	-9.6443
һҹ	-9.65047
��·�	-9.65258
���߽	-9.65262
�¡��	-9.65879
▁̧	-9.67297
ש	-9.67504
����	-9.67655
a	-9.67997
ݲ	-9.67997
⻰	-9.67998
��ˮ��	-9.68905
��˵����	-9.69636
����˵�	-9.70475
�˰	-9.7083
��߽	-9.71359
�̣�	-9.71627
م	-9.71707
��	-9.72214
���ʹ	-9.72475
ɽǰ	-9.72829
̫ʦ	-9.73914
����˽��������	-9.74876
�˹�	-9.75719
֥	-9.75843
Υ	-9.75843
�ʹ���	-9.75876
£�	-9.7621
	-9.76213
▁́�	-9.76245
˽��	-9.7693
���˱��	-9.76955
���£��	-9.77679
����˵��	-9.77852
˰	-9.77874
�	-9.78042
▁�˽�	-9.78266
·������	-9.78895
����˽����	-9.78949
���¡�	-9.79093
▁Ȼ	-9.79897
㣿	-9.8001
ע	-9.8001
ڤ	-9.8001
ɭɭ	-9.80022
▁̄�	-9.8049
�·	-9.80836
��·	-9.81798
𹿰���	-9.81982
�ͯ�	-9.826
˧��	-9.82863
����˼	-9.82985
������	-9.83538
�·���	-9.8407
▁Ѱ	-9.84077
ۺ	-9.84358
뺣	-9.84358
죡	-9.84358
Ӹ	-9.84358
紵	-9.84358
治	-9.84359
���	-9.84481
▁��˵�	-9.84665
���	-9.84797
˳�	-9.85688
��ͬ�	-9.85834
������߽	-9.86762
˽�����	-9.87048
���ˮ�	-9.87212
	-9.88221
��ʹ�	-9.88507
�°	-9.88511
����ˮ�	-9.88815
ί	-9.88903
㵽	-9.88903
跹	-9.88903
絽	-9.88904
ته	-9.88904
𣬾	-9.88904
ⱦ	-9.88904
ⳤ	-9.88904
��	-9.90249
ЩС	-9.90481
ǻɻ	-9.91004
�£�������	-9.92101
�£������	-9.92294
ݴ	-9.92326
▁ȡ	-9.92956
ݾ	-9.93665
Ӥ	-9.93666
�߽	-9.9461
��ͨ�	-9.94895
▁ս	-9.95045
��˵�����	-9.95191
�·����	-9.96032
▁̧�	-9.96164
ʹ��	-9.96186
��ʹ���	-9.97072
��·����	-9.97233
�˵������	-9.97329
��ͨ��	-9.97616
���˵����	-9.97906
▁Ϊ	-9.98128
һͬ	-9.98279
ˮ����	-9.9861
⣿	-9.98665
𣬰	-9.98665
ⷬ	-9.98665
鼪	-9.98665
𣿡	-9.98665
ϧ	-9.98666
滨	-9.98666
飡	-9.98666
ŧ	-9.98666
Ԥ	-9.98666
�ʿ�	-9.9875
�ͬ	-9.99197
▁û	-9.99352
Сͯ	-9.99386
����	-9.99415
�ͬ�	-9.99606
��׽	-9.99812
�˳�	-10.0001
��ͬ	-10.002
�ࡣ	-10.0062
��ͬ��	-10.0144
�����	-10.0176
1	-10.0189
����ˮ	-10.0242
��1	-10.031
˼��	-10.0362
▁˵�	-10.0383
볤	-10.0393
࣡	-10.0393
漴	-10.0393
硪	-10.0393
ƮƮ	-10.0403
�����	-10.0423
Ůͯ	-10.0438
����߽	-10.0475
����·�	-10.0479
�����	-10.0555
�ʹ��	-10.0558
▁ɳ	-10.0571
�¡����	-10.0584
�������˽	-10.0608
˯�	-10.0611
▁��������������	-10.0657
	-10.0662
˳	-10.0664
�����˼	-10.0673
���˶��	-10.0812
˧�	-10.083
������˵	-10.0832
▁�£�	-10.0878
��˽��	-10.0918
˼�	-10.0921
��£�����	-10.0934
ū	-10.0944
쾮	-10.0948
㶼	-10.0948
𣬲	-10.0948
۸	-10.0948
湫	-10.0948
벻	-10.0948
Х	-10.0948
˵��������	-10.096
�ˮ���	-10.097
˽����	-10.0977
ΡΡ	-10.0988
˯���	-10.0993
����˵���	-10.1013
ˮ������	-10.1057
��ˮ���	-10.1059
��	-10.1095
�����˵	-10.1098
▁˵��	-10.1103
�����˵��	-10.1117
��ʹ��	-10.1213
�����	-10.123
���޹	-10.1234
ľĸ	-10.1322
̣�	-10.1331
�˿	-10.1358
���·��	-10.1378
�˭	-10.1417
�ͣ���	-10.1419
i	-10.1535
Ю	-10.1537
𣬽	-10.1537
桢	-10.1537
磻	-10.1537
Ȥ	-10.1537
佫	-10.1537
t	-10.1537
թ	-10.1537
֬	-10.1537
Ѭ	-10.1537
쿪	-10.1537
��˵������	-10.1551
Ƥȹ	-10.1557
�˽��	-10.1622
�¶�	-10.1622
�׽	-10.1651
�߻�	-10.1651
ŵø	-10.1661
ͬȥ	-10.1704
ي	-10.1735
���˽���	-10.1737
���	-10.1755
�ͬ��	-10.1806
˴�	-10.1825
��˼��	-10.187
�£	-10.1882
˴��	-10.1985
▁�˼	-10.2026
���·�	-10.2062
̣���	-10.2085
▁ς	-10.2125
�����߽	-10.2149
ʹ������	-10.216
խ	-10.2162
é	-10.2162
뷽	-10.2162
لإ	-10.2162
캢	-10.2162
ɩɩ	-10.2162
꣡	-10.2162
�����˵�	-10.2184
����£�	-10.2231
̫ƽ	-10.2245
▁Ů	-10.2252
▁́	-10.2292
�1⁄2	-10.2346
ŵù	-10.2348
ʹ����	-10.242
▁�˽���	-10.2454
��˼�	-10.2463
�£��������	-10.2472
���·	-10.2477
����·��	-10.249
ͣ�	-10.2507
���ˮ	-10.254
�������£�	-10.2547
����˵����	-10.2549
÷	-10.2556
̲�	-10.2564
�÷	-10.2578
���˷�	-10.2579
���°	-10.2611
˾	-10.2635
�˲��	-10.268
▁���������������	-10.2684
ɻɻ	-10.2737
ɭ	-10.2757
���̣���	-10.2764
▁���߼��	-10.2775
ҫ	-10.2827
M	-10.2828
찶	-10.2828
㾫	-10.2828
𣬶	-10.2828
S	-10.2828
棿	-10.2828
ꡢ	-10.2828
뵽	-10.2828
Ԩ	-10.2828
죿	-10.2828
خ	-10.2828
㤾壬	-10.283
���	-10.2838
˧	-10.2859
��߽�	-10.292
▁��˵����	-10.3007
������	-10.3023
ȥȡ	-10.3036
�«��	-10.3036
�¡�����	-10.3171
�������˵	-10.3174
▁�£��	-10.3177
�˲�	-10.318
▁ת	-10.3215
�˻	-10.3243
���˼��	-10.3263
���1	-10.328
�ˮ����	-10.3319
▁ͅ��	-10.3329
�˴�	-10.3334
���·���	-10.3348
�ͣ��	-10.3363
�˶�	-10.3453
����ͣ�	-10.3499
î	-10.3543
۳	-10.3543
쳤	-10.3543
𣡡	-10.3543
ή	-10.3543
ϥ	-10.3543
ѥ	-10.3543
廨	-10.3543
ƪ	-10.3543
ӧ	-10.3543
㰸	-10.3543
㸸	-10.3543
羪	-10.3543
𣬿	-10.3543
شي	-10.3545
��	-10.3547
������	-10.3553
ˮ�����	-10.3585
СС	-10.3593
��޹	-10.3606
����߻�	-10.3619
�׵	-10.3624
˫˫	-10.3649
�԰��	-10.3698
·�������	-10.3711
�˺	-10.3712
�˲	-10.3734
£���	-10.3735
�˽���	-10.3743
�˾�	-10.376
͡�	-10.3799
˴����	-10.3831
▁ҡ	-10.3834
�����£�	-10.386
�˳��	-10.3863
�����˽����	-10.3864
������˽	-10.3886
�԰	-10.3892
�̣��	-10.3916
����˱��	-10.3934
��޵	-10.3935
▁ʫ	-10.3944
��ˮ�����	-10.3954
�̡�	-10.399
�����1	-10.4005
һһ	-10.4028
▁���˽	-10.4041
��ͣ�	-10.4068
�˶��	-10.4074
��°	-10.4088
���˵�����	-10.41
ͬ���	-10.4144
�«	-10.4157
▁�˽�������	-10.4191
▁ү	-10.4215
�˼��	-10.427
â	-10.4312
ʪ	-10.4312
硢	-10.4312
է	-10.4312
䵱	-10.4312
飿	-10.4312
ѯ	-10.4312
𣬵	-10.4312
쬵	-10.4312
ī	-10.4312
ᆱ	-10.4312
ȥɦ	-10.4351
�÷��	-10.4368
���£�����	-10.4372
��˷��	-10.4402
�˵�������	-10.4405
˾�	-10.4437
���̣�	-10.4479
���ˮ��	-10.4541
ͣ��	-10.4575
ԶԶ	-10.459
��ʹ�����	-10.4604
�˸�	-10.4616
▁ի	-10.464
ͣ����	-10.4674
��ͨ	-10.4677
▁ҹ	-10.4696
▁δ	-10.4701
��˰	-10.4733
ׯ��	-10.4733
�ʿ����	-10.4734
�̧��	-10.4746
�԰�	-10.479
▁���˽�	-10.4805
ɮȡ	-10.4813
÷��	-10.4849
▁˵	-10.4889
ҡҡ	-10.4914
▁jô	-10.4915
�	-10.4933
�˯�	-10.4934
��2�	-10.4969
��̣�	-10.4969
����߽�	-10.497
������˵���	-10.5011
����˼�	-10.5016
�1	-10.5024
��˶��	-10.5027
���ʹ�	-10.5033
ٰ�	-10.5034
׷�	-10.5046
���˽�����	-10.5061
��޲�	-10.5081
��̡�	-10.5127
˰�	-10.514
廪	-10.5145
廷	-10.5145
Ҩ	-10.5145
𣬱	-10.5145
ԫ	-10.5145
֯	-10.5145
ࣿ	-10.5145
ࣺ	-10.5145
裡	-10.5145
v	-10.5145
ⶾ	-10.5145
类	-10.5145
ꪣ	-10.5145
في	-10.5146
ɴͤ	-10.5149
ѰЩ	-10.5166
�ͬ���	-10.5171
�����	-10.519
����˴�	-10.5197
�˾	-10.521
�·������	-10.5218
�»	-10.5224
▁ɻ	-10.5233
▁́���	-10.5246
�ͨ�	-10.5246
ׯ�	-10.5257
ͬ��	-10.5257
�����˵���	-10.5294
ŵð	-10.5335
���˲	-10.5338
��	-10.5338
˹�	-10.5353
͸�	-10.5379
̤һ	-10.539
�޵	-10.539
��˯�	-10.5409
�ˮ�����	-10.5426
�ʹ����	-10.5468
����ʹ	-10.5481
ҲҪ	-10.5495
▁ɱ	-10.5498
�޿	-10.5502
▁�߽	-10.5514
ͨ	-10.5546
����ʹ�	-10.5581
��˷�	-10.5594
��̣���	-10.5596
��˽��������	-10.5599
��������£�	-10.565
▁��˵��	-10.5678
�������	-10.5698
�����˽�������	-10.5761
��¡���	-10.5777
ϸϸ	-10.5793
����˽����������	-10.5814
▁ʥɮ	-10.5815
���˽��	-10.5831
��£������	-10.5836
��˾	-10.5839
������	-10.5841
����˽���������	-10.5852
�˵��������	-10.5852
▁ɫ	-10.5885
���ͬ�	-10.5887
��	-10.5914
���˼�	-10.5923
�����ʹ�	-10.5926
˯	-10.5929
ǰʩ	-10.595
��˴�	-10.5956
�����ˮ	-10.5958
���1⁄2	-10.596
�����	-10.5968
����	-10.6007
���	-10.6016
ǧɽ	-10.6028
���¶	-10.6033
Ƨ	-10.6054
ᣡ	-10.6054
룡	-10.6054
졢	-10.6054
㷽	-10.6054
۰	-10.6054
p	-10.6054
ⶼ	-10.6054
빬	-10.6054
콵	-10.6054
T	-10.6054
㴦	-10.6054
仰	-10.6054
촦	-10.6054
꽫	-10.6054
⣡	-10.6054
ĬĬ	-10.6054
�¥�	-10.6086
��·�����	-10.6088
˸���	-10.6099
��󾭣�	-10.6126
��÷��	-10.6127
̩ɽ	-10.6129
̡�	-10.6133
˳��	-10.6148
�˹��	-10.6149
˴���	-10.615
▁�˽��	-10.6159
ͨ��	-10.6163
˻�	-10.6185
��˽���	-10.6217
�������	-10.6223
��̤�	-10.6229
���	-10.6231
���¥	-10.6248
���˹��	-10.6275
▁λ	-10.6287
˿��	-10.6302
��˽����	-10.6311
▁˵���	-10.6321
���ࡣ	-10.6322
�¥	-10.6323
▁ͅ�	-10.6333
�˼�	-10.6342
��ͬ���	-10.6405
��˽�����	-10.6406
▁Ϣ	-10.6465
˽�������	-10.6466
�����·�	-10.6489
�˼���	-10.6517
��	-10.6519
▁́��	-10.6568
����·���	-10.658
󾪵�����	-10.6588
�����˱��	-10.6594
▁���˼	-10.6606
��˱��	-10.663
˽��������	-10.6669
�˷	-10.6674
▁��̫�	-10.672
��˺�	-10.6722
�˷��	-10.6723
�͸	-10.6724
£��	-10.6735
��׽�	-10.679
�˹	-10.6806
ֻ֪	-10.6814
·��������	-10.6817
▁Ӧ	-10.6818
���̫��	-10.6821
����̣�	-10.6826
������˵��	-10.6828
����	-10.6841
�������˵��	-10.6877
˸�	-10.689
ͬ	-10.69
�������˼	-10.6926
1��	-10.6931
����1	-10.6948
���ͯ�	-10.6966
��˲�	-10.6986
▁�����߽	-10.6999
▁���˲	-10.7002
������ˮ�	-10.704
g	-10.7041
Ĭ	-10.7054
ف	-10.7054
츮	-10.7054
岻	-10.7054
ḫ	-10.7054
Ϯ	-10.7054
㻯	-10.7054
糤	-10.7054
ά	-10.7054
Ԯ	-10.7054
ⷽ	-10.7054
綴	-10.7054
𣬻	-10.7054
֩	-10.7054
徻	-10.7054
跨	-10.7054
붫	-10.7054
촽	-10.7054
䣺	-10.7054
�����	-10.7059
��̫��	-10.7071
ɿɵ	-10.7085
▁�˽����	-10.7106
▁ƽ	-10.7115
���˽�������	-10.7119
��¡��	-10.7121
ëʨ	-10.7135
ߺߺ	-10.7147
�����˽��������	-10.7152
˾��	-10.7176
������£�	-10.7199
׽�	-10.7211
����׽	-10.7223
���̫	-10.7223
¶�	-10.7228
���¥�	-10.724
�׷	-10.7248
���˷��	-10.7255
ͨ����	-10.7304
▁̫�	-10.7342
▁�˽��������	-10.7381
����ͨ���	-10.7388
�͹	-10.7402
��˹��	-10.741
ͨ�	-10.7412
�̨�	-10.7421
���԰�	-10.7435
�˰�	-10.7473
��ʹ����	-10.7489
��̵	-10.7501
�����	-10.7502
ȫȻ	-10.7504
▁̄��	-10.7505
�����˼��	-10.7512
����ʹ���	-10.7519
▁а	-10.7522
���߽�	-10.7526
▁ͅ	-10.7558
¶	-10.7624
�ͣ����	-10.7635
����ͨ�	-10.7639
�̧�	-10.7658
▁�	-10.7669
▁˫	-10.7687
���	-10.7691
▁ֱ	-10.7704
¡�	-10.7708
�޼	-10.7764
���˽����	-10.7771
�������˽�	-10.7779
��÷	-10.7794
��2��	-10.7798
����˺�	-10.7827
���£����	-10.7856
▁��ˮ�	-10.788
˯��	-10.7904
���ͣ�	-10.7905
��˵�������	-10.7911
˿	-10.7926
����˵�����	-10.7964
�̿	-10.7969
��̨	-10.7971
����	-10.7976
׽��	-10.7976
͸	-10.7977
������˵�	-10.8002
�͡�	-10.8018
�˶������	-10.804
���˳	-10.8044
�������	-10.8047
��˽�������	-10.805
�1⁄4	-10.8076
�̥��	-10.8085
£������	-10.8109
2��	-10.8109
ĮĮ	-10.8118
׷	-10.8132
�����˶��	-10.8132
�˽����	-10.8145
ǫ	-10.8165
𣬹	-10.8165
ƨ	-10.8165
ޥ	-10.8165
绹	-10.8165
C	-10.8165
俴	-10.8165
濴	-10.8165
u	-10.8165
䣻	-10.8165
ԧ	-10.8165
డ	-10.8165
භ	-10.8165
㼸	-10.8165
ꣻ	-10.8165
𣬼	-10.8165
P	-10.8165
ĭ	-10.8165
ʭ	-10.8165
㣻	-10.8165
䣿	-10.8165
鱾	-10.8165
鲻	-10.8165
لجم	-10.8165
仨	-10.8165
媹	-10.8165
˿�	-10.8171
̥Ȫ	-10.8172
xx	-10.8181
�����˹��	-10.8201
▁ϸ	-10.8221
��£��������	-10.8227
����°	-10.8244
�������˵�	-10.8265
��»	-10.8267
��	-10.83
�����ͣ�	-10.8322
▁ͬ	-10.8355
˰��	-10.8357
������	-10.8382
˷�	-10.8416
�˱��	-10.8417
�ׯ	-10.843
�޹	-10.8439
������˼	-10.8445
▁̄	-10.8445
��ʿ��	-10.8445
▁̄���	-10.8455
����	-10.8477
�˿��	-10.8481
����߼��	-10.8487
����¥	-10.8496
����·����	-10.8503
��£����	-10.8517
��������	-10.8541
▁˵�����	-10.8579
����̣���	-10.8598
��˼����	-10.8637
����˰	-10.8649
�̶�	-10.8678
����·	-10.871
�ʿ���	-10.8717
�׹	-10.8759
̫	-10.8766
̧��	-10.8769
�˸��	-10.8781
���������	-10.8787
��ˮ����	-10.881
▁��˵���	-10.8831
ʯɽ	-10.8843
����	-10.8854
ʼ	-10.8858
ׯ	-10.8867
�����ʹ	-10.8877
���׹����	-10.8882
�׶	-10.8893
▁�̲�	-10.8931
▁ȫ	-10.8937
������˽�	-10.8941
���	-10.8942
�޾	-10.8967
�����ˮ�	-10.8987
�̧	-10.9
��԰�	-10.9012
▁���߿��	-10.9027
������·�	-10.9079
▁�����	-10.909
���˼���	-10.9093
�·�����	-10.9094
��̨��	-10.91
ãã	-10.9107
��׽��	-10.9136
����ˮ��	-10.9138
����˷	-10.9142
�����˽�����	-10.9149
ʿ�	-10.9149
��ͯ�	-10.9153
���˰	-10.9165
��ׯ	-10.9166
����߼�	-10.9166
��·������	-10.917
	-10.9177
�ͣ�����	-10.9204
��˳�	-10.9207
һЩ	-10.9219
�˷�	-10.9243
�������߽	-10.9276
��˭	-10.9281
��������˵	-10.9295
��˵��������	-10.9313
▁ë	-10.9335
�˽�����	-10.9376
ل	-10.9395
V	-10.9403
▁��ͯ�	-10.9403
£�����	-10.9412
I	-10.9415
䵽	-10.9415
뺡	-10.9415
죻	-10.9415
Ģ	-10.9415
į	-10.9415
è	-10.9415
顢	-10.9415
𣬳	-10.9415
զ	-10.9415
㷨	-10.9415
糸	-10.9415
뿴	-10.9415
𣬺	-10.9415
B	-10.9415
ç	-10.9415
ũ	-10.9415
⡢	-10.9415
㻨	-10.9415
浽	-10.9415
糯	-10.9415
챦	-10.9415
ɯ	-10.9415
֫	-10.9415
ب	-10.9415
಼	-10.9415
绽	-10.9415
罫	-10.9415
棻	-10.9415
ن	-10.9415
룿	-10.9415
ئى	-10.9415
تم	-10.9416
������	-10.9433
��ͣ	-10.9457
̼䣬	-10.9474
��˴	-10.948
▁Ұ	-10.9486
�¡	-10.95
��1�	-10.9501
ࡣ	-10.953
̥��	-10.9551
ͣ	-10.9557
���˿�	-10.9576
�˯���	-10.9577
���˯�	-10.9591
�̰	-10.9618
3	-10.9621
˲��	-10.9639
�����£���	-10.964
�ʹ�����	-10.9667
�ͯ��	-10.9674
�˽��������	-10.9675
▁Ū	-10.9684
▁̄����	-10.9696
�����߼�	-10.9714
̨֮	-10.9736
ȫû	-10.9749
�˻��	-10.976
�߼�	-10.977
�����˽���	-10.9781
̻壬	-10.9789
���	-10.9797
׿	-10.9798
˸��	-10.9818
�˺�	-10.9827
��˶�	-10.9843
˵���������	-10.9844
�޴	-10.9848
�޵�	-10.9851
�������	-10.988
▁ҧ	-10.9882
˷	-10.9894
�����԰�	-10.9895
����޹	-10.99
�����¡�	-10.9901
▁ˮ	-10.9912
���׹��	-10.9928
��˳��	-10.9937
�ͨ���	-10.9951
����ͬ�	-10.9972
ɫɫ	-10.9977
���ʹ���	-10.9978
���˲�	-10.9984
�̷	-10.9986
ͬ����	-11.0006
���ͨ��	-11.002
������ͨ��	-11.0033
▁��˵	-11.0061
���«�	-11.0064
▁ÿ	-11.0075
���𹿰���	-11.0083
�̫���	-11.0084
�˶���	-11.01
��1⁄2	-11.0106
��׹�	-11.0134
����߼	-11.0142
�˶	-11.016
ʾ��	-11.0181
æȡ	-11.0183
▁������ˮ�	-11.0194
ߺߵ	-11.0204
��¶��	-11.0223
�̫��	-11.0228
���˶�����	-11.0228
�������	-11.0231
���ͬ��	-11.0238
▁·�	-11.0239
�ͣ������	-11.0242
��˲	-11.0246
����ͨ��	-11.0249
��ͯ��	-11.0253
��˺	-11.0255
߿	-11.0287
�˰��	-11.0299
��ͨ���	-11.0316
���ͣ��	-11.0316
����˵������	-11.0331
�̺���	-11.0344
����£��	-11.0344
���¡��	-11.0346
��͸	-11.0347
���ͯ��	-11.0348
▁Ԫ	-11.035
▁�ʹ���	-11.0361
��������׷	-11.0375
����ׯ	-11.039
̧�	-11.0413
˧����	-11.045
˷��	-11.0495
����������	-11.05
���˹�	-11.0502
ͯŮ	-11.0503
˱���	-11.0508
�÷���	-11.0514
����̴	-11.0515
˺��	-11.0519
���˴	-11.0521
�����	-11.054
��������	-11.055
���ͯ	-11.0553
��̾	-11.057
��޲	-11.0579
�����˰	-11.0586
����˯�	-11.0588
▁�������˽	-11.0593
�˽�������	-11.0598
�̤�	-11.0613
�˴���	-11.0626
�����˵�����	-11.0643
�«���	-11.0643
▁��˵�����	-11.067
��˶���	-11.0686
ͣ���	-11.0696
���ʹ��	-11.0697
�׼	-11.071
£����	-11.0741
��̧�	-11.076
ࡣ���	-11.076
�����̫�	-11.0771
�¥��	-11.0774
·����������	-11.0788
����˾�	-11.0825
⺻	-11.0844
빫	-11.0844
ï	-11.0844
n	-11.0844
𣬴	-11.0844
֭	-11.0844
㡢	-11.0844
㽻	-11.0844
佱	-11.0844
淽	-11.0844
벨	-11.0844
찵	-11.0844
ཫ	-11.0844
檣	-11.0844
汦	-11.0844
걸	-11.0844
뷨	-11.0844
彡	-11.0844
緢	-11.0844
룻	-11.0844
Ϧ	-11.0844
ө	-11.0844
ⷭ	-11.0844
䳾	-11.0844
孡	-11.0844
費	-11.0844
𣬸	-11.0844
㺮	-11.0844
鸣	-11.0844
Ы	-11.0844
ޤ	-11.0844
⣻	-11.0844
飻	-11.0844
쳯	-11.0844
ϭ	-11.0844
ڭ	-11.0844
絤	-11.0844
鴫	-11.0844
뼸	-11.0844
춤	-11.0844
ĩ	-11.0844
ύ	-11.0844
굤	-11.0844
ʨū	-11.0853
Ƥͤ	-11.086
˺�	-11.0874
��˿�	-11.0874
׵	-11.088
��˳	-11.0882
ʾ	-11.0889
▁æ	-11.089
▁ʹ�	-11.089
▁���˽����������	-11.0902
▁ָ	-11.0911
ͬ�����	-11.0911
𹿰�����	-11.0917
�˾���	-11.092
▁́�����	-11.0923
�׷��	-11.0936
������	-11.0973
���̲�	-11.0973
▁ˮ�	-11.0988
����˽������	-11.0996
���ˮ���	-11.0998
ʹ�����	-11.1018
˸����	-11.1028
ǻƷ	-11.1032
�߼��	-11.1034
���˺	-11.1039
��˷	-11.1057
���¿	-11.1064
��̤��	-11.1064
̫ҽ	-11.1078
�׺	-11.1097
ͯ��	-11.111
▁����	-11.1114
̽�	-11.1115
	-11.1118
΢΢��	-11.113
�����¥	-11.1141
�񡣡�	-11.1143
ûǮ	-11.1151
▁׽	-11.1158
¥	-11.1164
��ʼ�	-11.1174
���¶�	-11.1177
�����	-11.1178
����̧�	-11.12
԰	-11.1215
����»	-11.122
�������	-11.1227
򡣡�	-11.1258
����˷�	-11.1261
���£������	-11.1267
������˵�����	-11.1269
▁̧�����	-11.127
�׹�	-11.1286
�͸�	-11.1289
����£���	-11.1295
����߾	-11.1322
̽��	-11.1322
�����	-11.1345
���̡�	-11.1368
�������£���	-11.1385
������˲	-11.1408
�����˲	-11.1411
�ࡣ�	-11.142
��¶�	-11.1426
��󾭡�	-11.1431
̣��	-11.1432
�˱�	-11.1436
�˶����	-11.1447
▁�̣���	-11.1451
޵	-11.1462
��̸��	-11.1465
ͭ	-11.1476
���͹�	-11.1492
�	-11.1497
©	-11.1499
���»	-11.1509
���̧��	-11.1542
������߻�	-11.1569
���1��	-11.1577
�������	-11.1591
▁˯�	-11.1633
▁�£���	-11.1637
��˯	-11.165
���ͨ�	-11.1652
�«����	-11.1653
�,��	-11.1658
▁Ͷ	-11.1666
▁ƶɮ	-11.1685
��¿�	-11.1708
��̣��	-11.172
ĪŪ	-11.172
���������˽	-11.1722
���3⁄4	-11.1728
ʥȴ	-11.1732
����˶��	-11.1736
�̫	-11.1747
�����ͬ�	-11.1756
�˵����������	-11.176
�˳	-11.1772
���ͬ	-11.1774
������ˮ	-11.1803
����÷��	-11.1813
��󾭵	-11.1816
��˰˽	-11.1823
�߽�	-11.185
�����˽��	-11.1855
▁Գ	-11.186
▁�����»	-11.1861
����߾�	-11.1867
�˹���	-11.1869
��£�������	-11.1874
�ͣ	-11.1883
�˿�	-11.1891
�˶�����	-11.191
����԰	-11.191
▁����·�	-11.1913
��˹	-11.1981
�̣�����	-11.1988
�����˼�	-11.2001
���̣��	-11.2012
�ͨ��	-11.2027
▁�˲	-11.2027
��˿	-11.2079
▁����˵��	-11.2109
����׵	-11.2112
÷�	-11.2119
���˽��������	-11.213
·���������	-11.2133
��͹�	-11.2139
���˶���	-11.2155
�2��	-11.2173
˼���	-11.2175
������˵����	-11.2176
����ͬ��	-11.2185
��1��	-11.2201
ʿ���	-11.2231
̵�	-11.2238
����￴	-11.2275
�£���������	-11.2283
���˵�������	-11.2327
»	-11.2358
▁���߽�	-11.2364
�·�������	-11.241
��ͨ������	-11.2413
���̨	-11.2443
��̿	-11.2447
��¶	-11.247
������ͬ�	-11.2488
�ࡣ���	-11.2496
����	-11.2504
و	-11.2509
ɩ	-11.251
Į	-11.251
K	-11.2511
Ч	-11.2511
ҥ	-11.2511
澰	-11.2511
粽	-11.2511
㣺	-11.2511
壡	-11.2511
泯	-11.2511
裿	-11.2511
뽫	-11.2511
H	-11.2511
仹	-11.2511
뵱	-11.2511
壿	-11.2511
گ	-11.2511
⻪	-11.2511
オ	-11.2511
㸮	-11.2511
䵹	-11.2511
紺	-11.2511
麮	-11.2511
츣	-11.2511
컹	-11.2511
ǯ	-11.2511
ӫ	-11.2511
ᡢ	-11.2511
Ὣ	-11.2511
ⷨ	-11.2511
嶷	-11.2511
붷	-11.2511
찡	-11.2511
ѭ	-11.2511
㿳	-11.2511
棺	-11.2511
硱	-11.2511
뱾	-11.2511
춯	-11.2511
ق	-11.2511
䴦	-11.2511
汭	-11.2511
轣	-11.2511
귽	-11.2511
뿪	-11.2511
����˶�	-11.2511
𨣬	-11.2511
ᵳ	-11.2511
㱾	-11.2511
ⶴ	-11.2511
췹	-11.2511
𾦣���	-11.2517
�˴��	-11.2525
˻���	-11.2546
�˰˽	-11.2548
▁�����߼�	-11.2548
���������˵	-11.2568
��ʿ	-11.2579
ڵؽ	-11.2594
̫��	-11.26
�ͤ���	-11.2606
�����˵����	-11.2609
�ʹ������	-11.2613
ȴĪ	-11.2617
�����̡�	-11.2622
��¶���	-11.2653
���˺�	-11.2662
˽������	-11.2663
▁ͬ�	-11.2665
�̥����	-11.2691
��˴���	-11.2698
�ʿ������	-11.2706
������	-11.2709
ͤ�	-11.2714
���׽	-11.2737
������	-11.2745
�	-11.2764
���޲��	-11.2782
▁���	-11.2785
����̨��	-11.2806
��	-11.2807
�̡���	-11.2809
������1	-11.281
▁˪	-11.2812
�޽�	-11.2812
ƻɻ	-11.2819
��	-11.2824
񣿡��	-11.2827
���ٰ	-11.2848
��ͯ	-11.2863
ʤǿ	-11.2869
������	-11.287
˱	-11.2878
�����˶�	-11.2878
˲�	-11.2879
�ʹ��������	-11.2889
����˯���	-11.2899
����;�	-11.2904
▁��ʹ	-11.2923
�	-11.2929
���˴��	-11.2962
����������	-11.2962
����ʹ��	-11.2969
߿�	-11.2997
ŵý	-11.3024
�����˾�	-11.3025
СУ	-11.3036
▁�¶�	-11.306
��˯��	-11.3073
���˰�	-11.3083
�͡��	-11.3085
��������˽	-11.311
���	-11.3112
▁֤	-11.3112
������˷�	-11.3121
ͨ�����	-11.3127
�����˾���	-11.3129
˹��	-11.3131
���������£�	-11.3132
����������˽�	-11.3139
���̿	-11.3169
��˹�	-11.3182
���˵��������	-11.3185
𾦣�	-11.3193
��¥	-11.3195
̫���	-11.3202
�����£��	-11.3207
ͣ�����	-11.3217
���˯��	-11.3218
����˴��	-11.322
���	-11.3238
��׽����	-11.3243
����̲�	-11.3244
������˼�	-11.3251
�ͬ�����	-11.326
����޶�	-11.3268
���2�	-11.3285
˱��	-11.3306
��2����	-11.3307
˺	-11.3316
�˸���	-11.3318
���߼��	-11.3343
���̾	-11.3345
�������̫�	-11.3346
̾�	-11.3356
�����˸	-11.3371
ʻ	-11.3382
�˲����	-11.3385
�������	-11.3385
˹	-11.339
���˱	-11.3401
��������	-11.3402
▁�����̲�	-11.3402
▁�޳	-11.343
��̽����	-11.3444
▁���˽����	-11.3446
�ʺ���	-11.3464
�ˮ�������	-11.3473
ɳɮȴ	-11.349
�׽�	-11.3493
1⁄4	-11.3513
���׸	-11.3521
�;��	-11.3528
ȴȥ	-11.3541
�ͬ����	-11.3558
ͨ���	-11.3564
▁��������ͨ�	-11.3573
˻	-11.3574
Ⱥħ	-11.3587
�޷��	-11.3601
▁�����˼	-11.3605
˽����������	-11.3616
��¡����	-11.3623
���ˮ����	-11.3634
������	-11.3643
▁չ	-11.3646
���߼�	-11.3654
���˳�	-11.3662
���ˮ�����	-11.3669
�����	-11.3684
ࡣ��	-11.3696
�߿��	-11.3697
���÷��	-11.3701
▁·��	-11.3705
���޵�	-11.3712
���������	-11.3722
▁��ˮ��	-11.3727
˯����	-11.373
�����	-11.3746
ʥʩ	-11.3746
̶��	-11.3765
���������˵��	-11.3768
����˲	-11.3792
�ͭ	-11.3798
���ͣ���	-11.3802
����̫��	-11.3809
����׷	-11.3811
���˱�����	-11.385
ˮ�������	-11.3874
��˼���	-11.3894
�ٰ	-11.3897
�����	-11.3913
����ͬ	-11.3928
▁�˽������	-11.3946
����	-11.3967
▁���˴	-11.3969
�˭�	-11.3969
˼�����	-11.3975
�˾�����	-11.3978
ʿ	-11.3981
��·�������	-11.3994
̣����	-11.4003
��������ͯ�	-11.4006
�˯��	-11.401
���׹	-11.4012
��˽���������	-11.4016
˾����	-11.4018
����	-11.4023
▁���	-11.4036
���޶�����	-11.4045
�����ʼ�	-11.4045
�������	-11.4054
̰˽	-11.4055
▁��·�����	-11.4079
▁���߽	-11.4082
޼��	-11.4097
��̫	-11.412
��ʼ��	-11.4141
̳	-11.4154
▁ʹ���	-11.4171
�̷�	-11.4173
̢�	-11.4177
����¥�	-11.419
𹿰��	-11.419
~�	-11.4192
����˸	-11.42
����¬	-11.4229
�±	-11.4246
�2�	-11.426
���׾	-11.4268
�����˯	-11.4272
��ͣ���	-11.4272
▁��ˮ	-11.4274
ɮʦ	-11.4283
�ʹ�������	-11.4285
򡣡���	-11.4291
��˶	-11.4309
�ʼ����	-11.4334
ͯ�	-11.4335
�����°	-11.4351
�����˹�	-11.4375
���˻�	-11.4383
�̤	-11.4384
�˳���	-11.4385
����˳	-11.4388
�޶�	-11.4404
�����߻�	-11.4407
��޼	-11.4433
���˴�	-11.444
������	-11.4445
▁ǽ	-11.4446
��߻�	-11.4458
���̧�	-11.4459
����̫	-11.4485
▁����	-11.4488
����˭��	-11.4489
���ͨ����	-11.4496
����ˮ���	-11.4496
˾�����	-11.4502
㤾	-11.4504
▁̧��	-11.4505
�ͨ	-11.4506
ه	-11.451
촧	-11.4511
䵶	-11.4511
칰	-11.4511
﷽	-11.4511
Ƣ	-11.4511
澡	-11.4511
赸	-11.4511
龪	-11.4511
㰡	-11.4511
뾮	-11.4511
Ǩ	-11.4511
ܯ	-11.4511
ަ	-11.4511
ῴ	-11.4511
⻤	-11.4511
䵭	-11.4511
洦	-11.4511
濪	-11.4511
鵤	-11.4511
鷿	-11.4511
ɬ	-11.4511
Ҭ	-11.4511
ཻ	-11.4511
ྫ	-11.4511
ⷿ	-11.4511
㱨	-11.4511
㱻	-11.4511
伢	-11.4511
洫	-11.4511
淹	-11.4511
벽	-11.4511
뵡	-11.4511
첡	-11.4511
𡣰	-11.4511
𡣹	-11.4511
൱	-11.4511
㳤	-11.4511
翣	-11.4511
Q	-11.4511
W	-11.4511
ծ	-11.4511
ࣻ	-11.4511
ᰲ	-11.4511
⡪	-11.4511
㱣	-11.4511
㶨	-11.4511
伱	-11.4511
岿	-11.4511
潫	-11.4511
鳣	-11.4511
ꡱ	-11.4511
붯	-11.4511
붼	-11.4511
N	-11.4511
尾	-11.4511
麣	-11.4511
뱸	-11.4511
췢	-11.4511
༸	-11.4511
ྻ	-11.4511
㵱	-11.4511
価	-11.4511
涣	-11.4511
觡	-11.4511
鶴	-11.4511
齵	-11.4511
Ǧ	-11.4511
Ᵽ	-11.4511
泤	-11.4511
쳾	-11.4511
������	-11.4511
⣺	-11.4511
ⶨ	-11.4511
㹩	-11.4511
䱦	-11.4511
䶶�	-11.4511
忪	-11.4511
鱦	-11.4511
ꤵ	-11.4511
뾫	-11.4511
纣	-11.4511
ūū	-11.4513
̲��	-11.4518
ׯ���	-11.4521
̰ͼ	-11.4523
��̹�	-11.4541
ׯ���˼	-11.4542
˴�����	-11.4547
ͭǮ	-11.4548
▁��ʿ����	-11.4558
������	-11.4558
��������	-11.4562
���˱�	-11.4564
▁���˷��	-11.4575
˿�����	-11.4579
��������	-11.4579
���˶�	-11.458
�������˵����	-11.4585
�������1	-11.459
��׺	-11.4593
÷���	-11.4596
�˴	-11.4596
˶��	-11.4601
�������	-11.4624
ðð	-11.4629
ǿɺ	-11.4665
��˴��	-11.4677
▁�����¡�	-11.4683
����׽�	-11.4689
����˾	-11.4701
�����·	-11.4702
�����������	-11.4703
԰�	-11.472
��̵���	-11.472
����	-11.4748
��¥�	-11.4766
���¡���	-11.4779
���3�	-11.4784
�׹��	-11.4789
���ͣ����	-11.4795
▁�˺	-11.4803
ǰǰ	-11.4818
͸��	-11.4829
▁��˵������	-11.4845
�˭����	-11.4857
��޺��	-11.4858
▁·���	-11.4878
�˾��	-11.4881
�޹�	-11.4892
ײײ	-11.4907
▁�¡�	-11.491
��ͨ����	-11.4938
▁�˵	-11.494
ͬʦ	-11.4942
��ˮ������	-11.4957
▁ّٰ��	-11.4963
�˯	-11.4965
��˷���	-11.4967
����ٰ��	-11.4972
��ͨ�����	-11.4989
�޺��	-11.5007
▁Ω	-11.5009
¡���	-11.5027
��˾�	-11.504
���	-11.5041
▁ͨ�	-11.5043
▁ר	-11.5057
��׺�	-11.5063
���˻	-11.5064
������·��	-11.5068
���˵������	-11.507
ͥ�	-11.508
޵�	-11.5086
����ʿ	-11.5086
�������߼�	-11.5089
��˸���	-11.509
���·�̣���	-11.509
�3	-11.5095
��̸����	-11.5112
�¥̨	-11.5126
��̾�	-11.5139
�����˵������	-11.5145
�޴�	-11.5149
�̻���	-11.5155
���޽	-11.5171
▁����˵�	-11.5175
��޻	-11.5179
������˵������	-11.518
ŵĵ	-11.5186
���������˵����	-11.5187
▁ʢ	-11.519
▁̧����	-11.5195
���±���	-11.5198
���������˵���	-11.5203
ŵĻ	-11.5208
��1⁄2�	-11.5214
�����˽���������	-11.5217
▁ק	-11.5218
ͦ	-11.5221
▁���߾	-11.5224
�̥	-11.523
��������	-11.5235
���޵	-11.5236
�˻���	-11.5252
1�����	-11.5258
׻�	-11.5261
�᲻�	-11.5264
�ͤ	-11.5265
���޼�	-11.5275
▁���£�	-11.5298
������˽��	-11.5303
��	-11.5307
�;�	-11.5313
▁���˿	-11.5313
����3	-11.5314
�����ͤ�	-11.532
���ˮ������	-11.5337
ɽȪ	-11.5344
���ͣ	-11.5346
˶�	-11.5352
������̲�	-11.5356
�����·���	-11.5357
▁���˽��	-11.5359
̧���	-11.5364
▁������˵��	-11.5367
�󣬲�	-11.5367
���	-11.5372
▁�˴�	-11.5385
��§	-11.5386
���ʹ�����	-11.5399
𹿰�	-11.5399
�«�	-11.5405
޵�����	-11.5406
�������˭	-11.5409
����������˵	-11.5434
���޴�	-11.5445
�����򻰣�	-11.5448
�����޼�	-11.5457
��׹����	-11.5459
��˺��	-11.5462
��˭��	-11.5467
˵����������	-11.5467
�����£����	-11.5469
������׷	-11.5482
�޷�	-11.5503
���˾	-11.5507
̴�	-11.5508
����԰�	-11.551
׽����	-11.5526
▁���˶�������	-11.5547
����˵�������	-11.5565
��޿	-11.5567
������ˮ��	-11.5581
��ׯ�	-11.5589
�޻���	-11.5593
����˲��	-11.5595
Ǻǵ	-11.5599
��̵��	-11.5601
���׷	-11.5618
▁�����˾	-11.5641
��ͬ����	-11.5643
ʹ��������	-11.5657
��˽������	-11.566
�����׽�	-11.5666
���׾���	-11.569
▁���1⁄2	-11.5691
�˷�����	-11.5691
▁�̣����	-11.5705
����˿��	-11.5706
�׼��	-11.5707
�׵��	-11.5707
��󾭣����	-11.5709
�ࡣ��	-11.5734
��޺	-11.574
�����ˮ��	-11.5741
��̶�	-11.5747
��͸�	-11.5765
ͣ������	-11.5768
��˾��	-11.5772
▁ѹ	-11.5786
����˽�����������	-11.5788
�3⁄4	-11.5788
���˻��	-11.5793
�׷���	-11.5793
�޵��	-11.5805
����޵�	-11.5805
�߾���	-11.5809
�¶��	-11.5809
�����±	-11.581
����޷��	-11.5814
˭	-11.5818
���˸���	-11.5818
�̰��	-11.5823
��˴����	-11.5825
�������˳��	-11.5829
▁·����	-11.5844
��޴���	-11.5855
����׾	-11.5871
¶��	-11.5872
��±�	-11.5874
�˺��	-11.5875
▁�£����	-11.5882
▁��·��	-11.5889
▁�������°	-11.5895
£��������	-11.5902
��̳��	-11.5902
̰����	-11.5923
��˸�	-11.5933
����ͣ	-11.5936
�˭��	-11.5942
���͹��	-11.5943
ʹ�������	-11.5951
󣬳�	-11.5958
˰���	-11.5964
�¶����	-11.5967
���޸	-11.5979
▁�������˽�	-11.5993
�̸�	-11.6
��԰	-11.6
��������ͣ�	-11.6002
��˰��	-11.6004
�˸����	-11.6009
��������ˮ��	-11.601
󾪵��������	-11.6023
����޶��	-11.6029
���׻��	-11.6061
�����ͨ�	-11.6065
���˳���	-11.6067
���˾��	-11.6067
��͡�	-11.6072
�������˵���	-11.6086
▁ʧ	-11.6088
�����߽�	-11.6095
��3��	-11.6095
▁����ʹ	-11.6107
�������	-11.6139
ͤ	-11.6154
���޾��	-11.6159
�˼�����	-11.616
���᲻�	-11.6172
▁��ʹ�	-11.6198
�����˿�	-11.6201
�޷����	-11.6201
▁�˰	-11.6206
��̫���	-11.6209
���˭�	-11.6218
	-11.6224
�˽����������	-11.6224
˻��	-11.6225
��ͣ����	-11.6239
����˻�	-11.6243
���˴���	-11.6247
װٰ	-11.6263
▁ͅ���	-11.6271
�˩�	-11.6275
����·�����	-11.6288
���˷	-11.6297
�˿���	-11.6299
̣�����	-11.6306
����÷	-11.6323
▁����ʹ�	-11.6325
��޴��	-11.6327
�����̣�	-11.6327
�˽���������	-11.6332
������˷	-11.6335
����˾��	-11.6339
��׵	-11.635
������	-11.635
�󣬽���	-11.6352
����,��	-11.6355
�ͯ	-11.6357
̾����	-11.636
��̻�	-11.6373
▁�����˽	-11.6385
������̫�	-11.6401
�����̶�	-11.6403
��˳�����	-11.6403
���±	-11.6403
��ͭ	-11.6411
����	-11.6412
�⨺�	-11.6423
�����˳��	-11.6433
̧	-11.6446
������ͬ	-11.6446
�˹�����	-11.6456
▁���߼�	-11.6464
�����˺�	-11.6515
��ٰ�	-11.6516
���̽��	-11.6524
�˲���	-11.6532
������¡���	-11.6536
�̸	-11.655
��̳����	-11.6551
���ࡣ��	-11.6556
˧���	-11.6568
���˯	-11.658
ʿ��	-11.658
޶�	-11.6589
���ͬ���	-11.6599
���˳��	-11.6603
▁���˽�������	-11.6605
�������£��	-11.6606
󾪵������	-11.6616
��⿪	-11.6618
�����	-11.6627
��˸��	-11.6628
ʼ����	-11.6636
��,	-11.6641
�̵	-11.6641
�޳�����	-11.6652
�����׽	-11.6669
���ׯ�	-11.6677
������¥�	-11.6689
����£����	-11.6689
����ͭ	-11.6708
�;���	-11.6711
˼����	-11.6712
��ͣ��	-11.6713
�󾪵�������	-11.6717
����˻	-11.6722
����߿�	-11.6724
▁��	-11.6724
��̡���	-11.6743
▁̄���������	-11.6761
▁���	-11.6769
�3�	-11.6771
��·��������	-11.678
▁Θ	-11.6781
��˻	-11.6803
���˲��	-11.681
��ʿ�	-11.6816
▁����˵����	-11.6827
��˱	-11.6827
������׹	-11.6861
�ˮ������	-11.6874
�̣������	-11.6879
򡣡��	-11.6893
�������޳	-11.6898
���׹���	-11.6901
���̫���	-11.6926
˵�����������	-11.694
׹�	-11.6942
����ͨ	-11.6947
����˯	-11.6952
����¶	-11.6953
▁�̻�	-11.6959
����˼��	-11.6973
▁��·	-11.6984
׽���	-11.6994
�������ˮ�	-11.7005
��޲��	-11.7006
ح	-11.7007
ت	-11.701
ج	-11.701
ال	-11.701
帣	-11.7011
߬	-11.7011
㱦	-11.7011
塢	-11.7011
疒	-11.7011
衢	-11.7011
齣	-11.7011
뻤	-11.7011
쾭	-11.7011
𡣽	-11.7011
𡣾	-11.7011
ⱨ	-11.7011
ⲧ	-11.7011
㴩	-11.7011
㵫	-11.7011
䶪	-11.7011
绨	-11.7011
軨	-11.7011
黰	-11.7011
찳	-11.7011
𡣲	-11.7011
Ȣ	-11.7011
ড	-11.7011
サ	-11.7011
㳯	-11.7011
㻰	-11.7011
㾡	-11.7011
壻	-11.7011
帮	-11.7011
绯	-11.7011
谵	-11.7011
革	-11.7011
걾	-11.7011
볶	-11.7011
O	-11.7011
z	-11.7011
浲	-11.7011
立	-11.7011
Э	-11.7011
మ	-11.7011
ಿ	-11.7011
㡪	-11.7011
㵻	-11.7011
㶫	-11.7011
䡱	-11.7011
件	-11.7011
涼	-11.7011
滢	-11.7011
米	-11.7011
籽	-11.7011
緹	-11.7011
鶡	-11.7011
겿	-11.7011
괦	-11.7011
꼸	-11.7011
뷳	-11.7011
	-11.7011
𡣻	-11.7011
𡪡	-11.7011
𢣬	-11.7011
ᱡ	-11.7011
汨	-11.7011
跿	-11.7011
뱨	-11.7011
𣬷	-11.7011
q	-11.7011
⻯	-11.7011
ュ	-11.7011
㼴	-11.7011
縰	-11.7011
賯	-11.7011
룺	-11.7011
뷿	-11.7011
뷷	-11.7011
կ	-11.7011
㺦	-11.7011
Φ	-11.7011
ᴫ	-11.7011
篣	-11.7011
춼	-11.7011
鶪	-11.7011
곤	-11.7011
ֱͦͦ	-11.7011
جم	-11.7011
طمح	-11.7012
ҫҫ	-11.7012
ֱͦ	-11.7024
̸ʫ	-11.7025
��������£���	-11.7027
���̤��	-11.7054
▁̄������	-11.706
▁̫	-11.7066
1⁄2	-11.7068
���̹	-11.7073
���÷�	-11.7079
ͭ�	-11.7083
��3�	-11.7103
▁�޼	-11.7105
޵��	-11.711
˴	-11.712
�¡������	-11.7121
▁����	-11.7143
���̾���	-11.7157
���������˵�	-11.7162
���̧	-11.7162
▁ִ	-11.7162
������	-11.7172
�̣����	-11.7176
�̻�	-11.7191
¥�	-11.7212
�����	-11.7225
����̻�	-11.7235
ֽ̰	-11.7239
��ͥ�	-11.7246
󾪵���	-11.7247
�����ͨ��	-11.7252
ҪС	-11.7265
�����ʹ��	-11.7285
��������	-11.7285
������˹��	-11.7298
ʧȺ	-11.7303
����˲�	-11.7306
▁������	-11.7311
�޴��	-11.7315
�����򾻵�����	-11.7317
���޳	-11.7318
�˱�����	-11.7319
▁ľ	-11.7323
��̰�	-11.7333
õö	-11.7338
ʺ�	-11.7342
�	-11.7342
�޻	-11.7354
�����3�	-11.7369
▁����ͯ�	-11.7374
���̥��	-11.7377
�˸	-11.7377
���߼	-11.7381
������	-11.7384
���˾�	-11.7386
߿��	-11.742
�ͤ�	-11.743
��ͤ�	-11.7436
��׹	-11.7462
�޵�����	-11.7464
������·	-11.7465
▁���߼����	-11.7467
󣬷	-11.7473
��������ˮ�	-11.7483
����԰��	-11.7483
��׹���	-11.7497
�̰˽	-11.7497
��͹���	-11.7505
����̵	-11.7507
����˿�	-11.7513
��̴�	-11.7526
������£���	-11.7534
����	-11.7544
�˿����	-11.7545
��˿��	-11.7555
Ѱһ	-11.7566
���������˼	-11.7568
2�	-11.7569
�˼������	-11.757
����˸��	-11.7573
�÷�	-11.7574
׹���	-11.7577
�͡����	-11.758
�����ʿ�	-11.7584
޵������	-11.7593
▁���°	-11.7601
��׷�	-11.7613
����¶���	-11.7616
����ͬ���	-11.7626
��׾���	-11.7639
����˯��	-11.7644
�̰�	-11.7645
�1⁄2����	-11.7652
����˳��	-11.7673
�̾��	-11.7674
�«�����	-11.7688
Ҳ̧	-11.7695
��	-11.7701
��ʽ���	-11.7706
�޲�	-11.7715
▁���£��������	-11.7715
������ʹ	-11.7726
̾��	-11.7729
▁��������̨�����	-11.7732
������޶�	-11.7735
����	-11.7742
▁��ͨ���	-11.7751
̲	-11.7761
������˯	-11.7779
�˷����	-11.7803
��˼������	-11.7805
▁̤����	-11.7812
▁��ʿ�	-11.7848
�ٰ�	-11.7865
���׮�	-11.7867
ץס	-11.7875
˿������	-11.7877
��󾭣��	-11.7894
�����	-11.7896
�ׯ�	-11.7902
�������£�����	-11.7908
���������߽	-11.7919
�������	-11.792
▁ȹ	-11.7929
���1⁄4��	-11.7934
��˱�����	-11.7939
��������ͯ��	-11.7945
˯�����	-11.7947
▁��̫����	-11.7963
޿	-11.7968
������޽	-11.7972
��¶����	-11.7995
▁֦	-11.8
▁�޵	-11.8013
�����̣���	-11.8013
̿	-11.8018
▁���˽��������	-11.802
����¡���	-11.8021
▁Ѫ	-11.8025
������ׯ�	-11.8027
�߿���	-11.8031
������˸	-11.8034
�޵����	-11.8064
�	-11.8065
������������	-11.8071
��ʼ����	-11.8083
�����1⁄2	-11.8084
����̧	-11.8093
▁���»	-11.8098
˾������	-11.8113
�������·�	-11.8116
̸���	-11.8124
��������̿	-11.8126
ͯ����	-11.8126
��̧	-11.8134
�����˳	-11.8139
���׹�	-11.8145
��߼�	-11.8145
ʹ�˶����	-11.8156
̸��	-11.8156
����������	-11.8164
▁��ͨ�	-11.8169
���˼����	-11.8172
ʼ��	-11.8175
▁�˾�	-11.8183
▁���˸	-11.8186
¥���	-11.8196
׮��	-11.8197
��޳	-11.8218
����˼���	-11.8222
▁ͅ�����	-11.8222
��������˽�	-11.8225
������1��	-11.8237
▁¥	-11.8266
̨��	-11.8272
����߿	-11.8276
���ͬ����	-11.8279
���󺣣�	-11.8284
��󾪵�����	-11.8292
̶�	-11.8307
�����ˬ��	-11.8308
�������·��	-11.8312
��̲	-11.8313
▁�˼��	-11.8317
÷������	-11.832
����˻��	-11.8323
����������˵��	-11.8329
��������˵��	-11.8329
¥̨���	-11.8335
�̴���	-11.8342
▁�˲��	-11.8346
�������	-11.8353
���̣�����	-11.8365
���ׯ��	-11.8371
��	-11.8372
���·����	-11.8379
��������˼	-11.8385
▁��ˮ���	-11.841
��1�����	-11.8422
��˯����	-11.8429
�ˮ·�����	-11.8467
����̾��	-11.8496
▁̧���	-11.8503
������׹�	-11.8507
˰������	-11.8511
�����ʿ	-11.8513
���������˽�	-11.8515
���ͤ�	-11.8517
�򾻣��	-11.8522
����·������	-11.8526
������˯�	-11.8527
˳������	-11.8536
����ͤ�	-11.8549
�������׽�	-11.8558
��ͦ�	-11.8559
���¥���	-11.8564
¡�����	-11.8564
=�	-11.8577
������°	-11.8583
▁���£��	-11.8584
�1���	-11.8594
˴������	-11.8603
�׽����	-11.8604
▁��̫	-11.8605
͸���	-11.8618
▁���˺	-11.8622
▁ƿ	-11.8631
�����˽����������	-11.8646
�����·��	-11.8647
��¬	-11.8652
�˼����	-11.8674
▁�˶��	-11.8676
߽�	-11.8681
�����˯�	-11.8681
��˵����������	-11.8684
�ʼ�	-11.8689
�����޺���	-11.8689
▁ʹ��	-11.869
▁��˯����	-11.8693
����;	-11.8699
��������	-11.8709
�����⹫	-11.8712
���ͭ	-11.872
▁ѡ	-11.8727
������ࡣ	-11.8727
΢��	-11.8745
�������̿	-11.875
��˻��	-11.8754
�޲���	-11.8785
����������¡�	-11.8791
󣬴������	-11.8808
¶����	-11.8813
����������˵�	-11.8815
�򾻣����	-11.8816
�1��	-11.8818
���ʼ���	-11.882
����ͣ���	-11.8845
ѰѰ	-11.8852
▁���£�����	-11.8857
��̨���	-11.8859
˵�˽	-11.8862
׮�	-11.8866
�����˱�	-11.8871
��̽��	-11.8881
��������°	-11.8908
▁β	-11.8917
����÷�	-11.8925
�޸�	-11.8965
׻����	-11.8969
��ʾ�	-11.897
���񣬸�	-11.8972
߻�	-11.8978
����ࡣ	-11.898
��˳���	-11.8982
�������	-11.8982
������˹�	-11.8988
��������ˮ	-11.8988
���������	-11.899
▁��������	-11.8997
���̸	-11.9008
▁���������	-11.9015
��������	-11.9021
�����׵	-11.9024
��ʾ��	-11.9025
ͨҲ	-11.9031
̹��	-11.9031
��޵�	-11.9032
▁�˸����	-11.9045
����1⁄2��	-11.906
���£�������	-11.9069
��	-11.9071
▁��˵�������	-11.9083
���˰���	-11.9087
����˿	-11.9088
▁·	-11.9089
▁ɲ	-11.9094
��̻���	-11.9096
�����	-11.9105
��˲��	-11.9108
˩�	-11.9116
▁ͅ����	-11.9116
̰���	-11.9119
������˶��	-11.9132
һС	-11.9151
̰�	-11.9159
�̽��	-11.9162
̡��	-11.917
▁����ʹ��	-11.9175
������˼��	-11.9188
�̥���	-11.9191
����޳	-11.92
▁�̣�	-11.9202
�������»	-11.9204
���	-11.9205
▁�̣������	-11.9213
�˳�����	-11.9219
�¡��������	-11.9221
̣������	-11.9221
��໹��	-11.9246
׻��	-11.9247
���˿	-11.9248
񣿡����	-11.9259
����̥	-11.9262
����	-11.9269
�󣬲��	-11.9275
▁���˽������	-11.9281
���ͨ	-11.9284
�·;	-11.9295
���������	-11.93
�������̣�	-11.9301
����ͯ�	-11.9311
�̺��	-11.9319
▁́������	-11.9324
����԰���	-11.9338
��������	-11.9342
�»�°�����	-11.9345
���ˬ�	-11.9363
�����	-11.9367
̾���	-11.9367
��󾭣���	-11.9369
ʺ���	-11.9372
˾���	-11.9374
��˯���	-11.9375
�̫����	-11.938
�͸��	-11.9381
����������	-11.9393
���̵	-11.9399
�⹫��	-11.9399
��ࡣ��	-11.9407
����͡�	-11.9408
�̻	-11.9425
δΪ	-11.9434
▁������˵�	-11.9437
��˾�����	-11.9445
����¡�	-11.9447
�˵���������	-11.9449
▁̫��	-11.9453
ʾ�	-11.9457
�˰���	-11.946
���׼	-11.9461
���������	-11.9465
̼	-11.9476
��̧���	-11.9481
¡����	-11.95
�ʼ��	-11.9503
˷���	-11.9507
͡����	-11.9521
���԰	-11.9528
��̳	-11.9545
▁�¡������	-11.9552
����ˮ����	-11.9569
������	-11.957
̤���	-11.9571
�͸���	-11.9588
��಻���	-11.9593
̣�������	-11.9594
���3���	-11.9607
��̻	-11.9609
��°�	-11.9615
▁�����¡��	-11.9621
׷��	-11.9623
�򾻺��	-11.9625
���˩�	-11.9631
���˷���	-11.9644
��׷��	-11.9646
񣬷������	-11.9647
▁ͨ�����	-11.9662
̷	-11.9664
𹿰�������	-11.9667
�����ࡣ	-11.9684
�����߼��	-11.9684
�ʼ	-11.9689
ʿ�����	-11.9698
����̵��	-11.9699
�������˵������	-11.9708
▁�˵��	-11.9709
�¶���	-11.9715
᲻�	-11.973
���3	-11.973
�������ͯ�	-11.9734
�������޸	-11.9739
ࡣ�	-11.9741
򣡡����	-11.9746
��̣������	-11.9756
���⹫�	-11.977
�˱	-11.978
���߿	-11.9782
���˰��	-11.9783
�����̾	-11.9796
˩	-11.9799
▁̫���	-11.9802
������±	-11.981
,��	-11.9824
������ʹ�	-11.9832
��̩���	-11.984
˿���	-11.9842
��˭�	-11.9852
���	-11.9874
▁1�	-11.9893
�3⁄4���	-11.9898
�ʿ�����	-11.9907
�޹���	-11.9913
▁�˺�	-11.9914
���������˵˵	-11.9918
�������̹	-11.9929
���󣬱�	-11.9941
��಻�	-11.9948
▁�̣��	-11.9948
��3���	-11.9951
�������	-11.9955
¥̨	-11.9956
▁����ˮ��	-11.997
▁ǣ	-11.9978
���°��	-11.999
̬��	-11.9991
▁������˵���	-11.9992
���̤�	-12.0006
���԰��	-12.0011
̻��	-12.0017
˲������	-12.0029
3⁄4�	-12.0037
��������	-12.0038
�˾����	-12.0041
������߽�	-12.0044
▁��̫��	-12.0053
▁������ʹ��	-12.006
��׶��	-12.0062
򣬵�	-12.0064
����	-12.0083
��������	-12.0089
�׮�	-12.009
˧�����	-12.009
������	-12.009
˽���������	-12.0094
�̤���	-12.0103
��񣡡�	-12.0104
�󣬶���	-12.0109
˶�����	-12.0111
������˲��	-12.0116
▁������˵����	-12.0128
�������	-12.0132
�������°	-12.0133
��3����	-12.0136
򣬲��	-12.0145
������˵�������	-12.0145
�˶�������	-12.0163
�������ͬ�	-12.0176
�	-12.0195
▁��̧�	-12.0208
�޵���	-12.0211
�߿�	-12.0217
���˹	-12.022
������ͣ�	-12.023
������1�	-12.0236
��޼�	-12.0241
������˶���	-12.0245
������˾	-12.0256
���2	-12.0256
��򾻣�	-12.0276
▁˭�	-12.0278
▁ׯ�	-12.0278
�������˯	-12.0283
;�	-12.029
���̴	-12.0295
������׼�	-12.0315
����ͣ��	-12.032
ӯӯ	-12.0322
�򣿡����	-12.0324
��׷	-12.0327
����˰˽	-12.0331
���޶�	-12.0333
�͢	-12.0339
ῳ	-12.0344
㶷	-12.0344
쪣	-12.0344
έ	-12.0344
嶼	-12.0344
翡	-12.0344
豦	-12.0344
귿	-12.0344
꼲	-12.0344
첽	-12.0344
컨	-12.0344
罵	-12.0344
鶨	-12.0344
Ҧ	-12.0344
ث	-12.0344
อ	-12.0344
༪	-12.0344
ⷹ	-12.0344
䱻	-12.0344
峴	-12.0344
粼	-12.0344
絴	-12.0344
辵	-12.0344
갵	-12.0344
빥	-12.0344
��񵽻�	-12.0344
𡣴	-12.0344
ɪ	-12.0344
ೡ	-12.0344
Ὺ	-12.0344
㻻	-12.0344
䵣	-12.0344
羰	-12.0344
췴	-12.0344
Ł	-12.0344
Ϩ	-12.0344
Ф	-12.0344
لآ	-12.0344
لجي	-12.0344
ദ	-12.0344
ⰶ	-12.0344
㷴	-12.0344
䰵	-12.0344
侾	-12.0344
彫	-12.0344
水	-12.0344
編	-12.0344
繳	-12.0344
翪	-12.0344
赲	-12.0344
鷽	-12.0344
굽	-12.0344
뱦	-12.0344
볼	-12.0344
븸	-12.0344
찰	-12.0344
촬	-12.0344
𥣬	-12.0344
켸	-12.0344
ᄀ	-12.0344
ᄊ	-12.0344
㳶	-12.0344
涫	-12.0344
綫	-12.0344
뺰	-12.0344
칭	-12.0344
쿴	-12.0344
𡣵	-12.0344
F	-12.0344
Z	-12.0344
ä	-12.0344
ƅ	-12.0344
Ǡ	-12.0344
Ϥ	-12.0344
Ҥ	-12.0344
ك	-12.0344
ඥ	-12.0344
⺮	-12.0344
㳾	-12.0344
㼱	-12.0344
䳸	-12.0344
庣	-12.0344
澣	-12.0344
粮	-12.0344
繩	-12.0344
缴	-12.0344
谲	-12.0344
靑	-12.0344
꾪	-12.0344
멣	-12.0344
봣	-12.0344
뽲	-12.0344
찲	-12.0344
쳣	-12.0344
촫	-12.0344
칫	-12.0344
컻	-12.0344
쾡	-12.0344
𡢷	-12.0344
𡣳	-12.0344
𾦹	-12.0344
򡣴��	-12.0344
󡪡	-12.0344
෢	-12.0344
ᦣ	-12.0344
ᦱ	-12.0344
Ⲽ	-12.0344
⻢	-12.0344
侭	-12.0344
屣	-12.0344
屲	-12.0344
滹	-12.0344
粡	-12.0344
絶	-12.0344
羭	-12.0344
黢	-12.0344
뵹	-12.0344
𡣷	-12.0344
E	-12.0344
༴	-12.0344
ྭ	-12.0344
㡷	-12.0344
㶴	-12.0344
䰡	-12.0344
汻	-12.0344
泴	-12.0344
滷	-12.0344
皿	-12.0344
찴	-12.0344
춨	-12.0344
	-12.0344
���𷨣�����	-12.0344
��󷹣����	-12.0344
��󷿣�	-12.0344
�񲻸����	-12.0344
鵽	-12.0344
뺷	-12.0344
����	-12.0344
󣡡����	-12.0344
ᵽ	-12.0344
Ự	-12.0344
㴫	-12.0344
䱨	-12.0344
洺	-12.0344
淨	-12.0344
澫	-12.0344
濰	-12.0344
纮	-12.0344
隹	-12.0344
붨	-12.0344
븹	-12.0344
춵	-12.0344
���������	-12.0344
�����𸮣���	-12.0344
漱	-12.0344
뷢	-12.0344
.��	-12.0344
ᱦ	-12.0344
꽣	-12.0344
㽲	-12.0344
������﷭�	-12.0344
޺޵	-12.0344
ǫǫ	-12.0345
�޵	-12.0347
㤾塣	-12.0349
������ͬ��	-12.0349
����˴	-12.035
▁�޿����	-12.0354
������ͨ	-12.0354
▁«��	-12.037
▁���¡�	-12.0372
�·��������	-12.0373
ͦӲ	-12.0374
ҡһҡ	-12.0388
�����£�����	-12.0389
▁DZ	-12.0398
طم	-12.0399
���ʹʹ��������	-12.04
����׸	-12.0404
▁���ͣ�	-12.0405
�����˺	-12.0406
̿��	-12.0411
▁������ˬ����	-12.0416
�᷿��	-12.0416
�����˻���	-12.0419
�������˸����	-12.042
�󣬲�����	-12.0421
▁�£�����	-12.0421
žƺ	-12.0432
�����˩�	-12.0437
����˹���	-12.045
��ࡣ	-12.0463
����̰	-12.0466
�����	-12.0471
�������߼������	-12.0471
�⿪������	-12.0481
���£��������	-12.0481
���͹	-12.0484
▁�����̵	-12.0499
ٰ	-12.0499
���׼�	-12.0501
▁ĮĮ	-12.0504
𹿣�	-12.0508
��������	-12.0508
˰��	-12.0514
���˶������	-12.0514
��˶����	-12.0515
ÿÿ	-12.0517
��΢�����	-12.052
��̨ͤ��	-12.0538
�����˻��	-12.0554
���׽�	-12.0555
���˿���	-12.0558
�������˽���	-12.0558
񣬶	-12.0568
̸Ц	-12.0575
����ʿ�	-12.0577
������԰�	-12.0578
�˵˵	-12.0584
�̣�������	-12.0587
źó	-12.0588
���·������	-12.0592
�����	-12.0592
▁ʹ	-12.0596
�˱��������	-12.0598
����˹��	-12.0603
�˩���	-12.0606
���·�����	-12.0609
�ˮ�£�	-12.0619
▁���߼	-12.0622
��˴�����	-12.0626
�˷���	-12.0632
������£��	-12.0633
���˱�������	-12.0634
▁���1�	-12.0634
õij	-12.0638
;��	-12.0638
ĵĽ	-12.0646
▁�˽����˵������	-12.065
▁�߽�	-12.0651
��̥���	-12.0653
��̸���	-12.0655
����������˽	-12.0659
▁ʿ��	-12.0677
᣿��	-12.068
�̹��	-12.068
ƵƵ	-12.0684
�����·����	-12.0684
����̣��	-12.0688
ױ̨	-12.0689
�����޳�	-12.069
▁��ͬ	-12.0699
▁���	-12.0701
˾͸�	-12.0703
�����߼���	-12.0707
�̧����	-12.0721
�������	-12.0721
����̽��	-12.0726
�߾	-12.0734
�°˽	-12.0738
�������˽�������	-12.074
˳���	-12.0742
����¶��	-12.0742
����¶�	-12.0742
޴	-12.0744
�ͯ����	-12.0745
▁���¡��	-12.0754
Ͱ͵	-12.0754
����˸�	-12.0788
��������ʺ�	-12.0796
▁�̶�����	-12.0797
������ˮ���	-12.0807
▁�����	-12.0809
��������·	-12.0814
�¥�£��	-12.083
�󣬵���	-12.0831
▁������¥��	-12.0832
·��׽����	-12.0837
��;��	-12.0838
߼���	-12.0851
����׾��	-12.0854
˰�����	-12.0857
�����΢��	-12.0867
׬������	-12.0868
▁ّٰ����	-12.087
��¶������	-12.0871
���������	-12.0874
▁�˽�����	-12.0881
�߼����	-12.0882
̹���	-12.0887
�����˴�	-12.0888
�򣬵���	-12.089
▁ߵ	-12.0891
▁�͹�	-12.0891
�������߼	-12.0898
������￴��	-12.0909
����1⁄4��	-12.0915
�������£������	-12.0918
������	-12.0924
����3���	-12.0925
��˹�����	-12.093
���߾	-12.0938
�����׷	-12.0949
�򣬽�	-12.096
�������˵�����	-12.0962
��͡����	-12.0962
���	-12.0963
�������£����	-12.0971
鿴��	-12.0974
���÷	-12.0978
�������	-12.0983
����޻	-12.0985
�˩��	-12.1005
��޶������	-12.1009
ʺ	-12.1017
▁���˰�	-12.1022
ͥ��	-12.1035
���ͥ��	-12.1044
������߼	-12.1046
���	-12.1054
▁����ͭ	-12.1056
������ʹ���	-12.1058
�̴��	-12.1059
˯�£�	-12.106
������߽̣���	-12.1062
����	-12.1081
ŵƻ	-12.1084
������¥	-12.1109
▁ƫ	-12.1112
������¥̨���	-12.1115
1���	-12.112
���𷨹�	-12.1121
��ͦ��	-12.1133
�ͭ����	-12.1144
�����ͬ��	-12.1148
����������ʿ	-12.1149
�3��	-12.1155
��̩�	-12.1159
��»�	-12.1168
��	-12.1169
����߼����	-12.1175
▁�߻��	-12.1179
����˶�����	-12.1183
▁���˱�	-12.1189
̤��	-12.1195
���»����	-12.1196
���̷	-12.1199
޿����	-12.12
��񣬵��	-12.1204
���񣬽�	-12.1218
���ׯ	-12.1221
����˳�����	-12.1235
�������˽�����	-12.1237
򣬿�	-12.1238
�˩	-12.1246
��ͤ��	-12.1252
׹	-12.1256
▁�����̲	-12.1258
���޺�	-12.1266
��˻�	-12.127
��̡��	-12.1273
𹿰����	-12.1277
▁�°	-12.128
԰˽�	-12.128
��������˵����	-12.1281
�����˰���	-12.1281
▁��ͭ	-12.1285
����˵��������	-12.1288
��¡�����	-12.1289
▁߯	-12.1293
▁���˴�	-12.1304
����߽���	-12.1306
ͤ���	-12.1311
�׿	-12.1312
��޹�	-12.1318
�͡������	-12.1321
���¡�����	-12.133
����޸�	-12.1336
�׼�	-12.1346
����̸�	-12.1347
��;���	-12.1348
�򴬣���	-12.1349
��������·�	-12.1358
󺣡���	-12.1359
��̷	-12.136
▁˼�	-12.1362
��¿��	-12.1373
�̳ʹ�	-12.1375
���԰��	-12.1379
▁��̤����	-12.138
��˵��·�	-12.1395
���߼���	-12.1395
▁٤	-12.1401
��˿���	-12.1417
����ͥ��	-12.142
▁�	-12.1422
▁����·��	-12.1427
˿����	-12.1439
�������̡�	-12.1442
����ׯ�	-12.1444
���񣬱�	-12.1444
�����ˮ���	-12.1448
▁���������	-12.1453
��������˵���	-12.1458
▁�»	-12.146
޸�	-12.1462
�񡣴�	-12.1471
ɦͨ	-12.1473
������޺�	-12.1477
�󾭡�	-12.1485
�������˱��	-12.1494
�������˭���	-12.1501
�������	-12.1505
�̻����	-12.1506
˯��������	-12.1512
▁�˴��	-12.1512
�񣬹	-12.1515
����׹�	-12.1522
��̸�	-12.1526
�����	-12.1526
�������̣��	-12.1527
����	-12.153
���;	-12.1534
�޲	-12.1539
▁���׶���	-12.1552
▁�����޲	-12.1557
���ʹ����	-12.1557
�3���	-12.1558
򣬾����	-12.1559
Ըի	-12.1565
��̣�����	-12.1572
�£�ʹ�����	-12.1578
̰	-12.158
▁̄��������	-12.1584
�������˩�	-12.1587
޴�����	-12.159
▁�˽����������	-12.159
�����˹	-12.159
	-12.1596
�󣬻��	-12.1601
˰˽	-12.1608
�£�����˵����	-12.1614
▁���߾�	-12.1628
һͨ	-12.1631
˶���	-12.1652
▁���߻�	-12.1658
ƽƽ	-12.1672
���׺�	-12.1674
��ʺ	-12.1677
�׶���	-12.1688
ͨ������	-12.1689
����˵�ʿ	-12.1697
����ͦ	-12.1711
Ҽҵ	-12.1713
�����¶�	-12.1718
���˭	-12.1723
�����������߼�	-12.1731
��̫����	-12.1731
���̵�	-12.174
������˶�	-12.1741
شح	-12.1744
̳����	-12.1749
�󣬻������	-12.1754
���͡�	-12.1755
▁ϯ	-12.1759
Ǻõ	-12.1759
򣬴��	-12.176
׹����	-12.1764
�����ʿ���	-12.177
�ͣ�������	-12.1771
�߼���	-12.1776
����˳�	-12.1777
▁�£����������	-12.1779
▁�̳���	-12.1784
������˽���	-12.1784
������˳��	-12.1785
������򾻣��	-12.1789
▁���԰�	-12.1796
▁�2����	-12.1796
�°�	-12.1797
▁���������1⁄4	-12.1811
��������˵�	-12.1816
���ͣ�����	-12.1817
▁���˻	-12.1834
̥������	-12.1845
�׹���	-12.1845
�����ٰ�	-12.1851
▁���˴����	-12.1855
����������	-12.1861
�ʹ���������	-12.1867
����̸	-12.1877
���˯�¡�	-12.1882
��ͯ�����	-12.1897
�����߾�	-12.1897
�����1�	-12.19
�¥��¥�	-12.1907
¡��	-12.1908
�޵׶�����	-12.1924
▁�1⁄2�������	-12.1927
�˧����	-12.1932
�»�	-12.1935
��£���������	-12.1939
������˱��	-12.1941
�������˼�	-12.1948
�޺	-12.1953
��˿�����	-12.1959
��̽	-12.1961
�������	-12.1972
��˼�����	-12.1982
�೤	-12.1989
����߼���	-12.2002
�����˰˽	-12.201
��￴	-12.2011
▁����ͬ�	-12.2022
�̩����	-12.2023
����	-12.2031
�����¶���	-12.2033
𾦣��	-12.2035
���̷���	-12.2046
��̤	-12.2052
��ʹ�������	-12.2059
��̧����	-12.2067
�򣬱	-12.2068
▁����˵	-12.2073
׼�	-12.2074
��˵���������	-12.209
��ʿ���	-12.2094
�����޹	-12.2095
�񣬽�	-12.2098
����󺣣��	-12.2106
����ʿ��	-12.2109
����̺�	-12.211
▁�ͣ�	-12.2114
��ͣ�����	-12.2116
�����˱�����	-12.2126
�򣬹�	-12.2131
�΢΢	-12.2136
▁�ʹ	-12.2147
▁�����ٰ	-12.2152
���§�����	-12.216
�ͦ���	-12.216
▁��	-12.217
˻�����	-12.217
����3�	-12.2176
����˯������	-12.2176
��͹��	-12.2182
����˱	-12.2185
������·���	-12.2188
������׵	-12.219
��׸	-12.2191
�̫�����	-12.2201
▁�¡����	-12.2213
▁ռ	-12.2216
▁�˸	-12.2226
�̽����	-12.2227
ʹʹ������	-12.2239
��¡����˽�	-12.224
�޺�	-12.2247
▁����ͤ�	-12.2249
�����	-12.225
�͹�	-12.2257
�˹����	-12.2264
�ͯ���������	-12.2278
��1⁄4��	-12.2285
���𹿰�������	-12.2307
޼�	-12.2309
¿�	-12.2321
���	-12.2321
������1⁄4	-12.2325
������ͨ�	-12.2326
�����ʹ����	-12.2332
������˶�˵��	-12.234
▁ׯ��	-12.2345
��ͥ	-12.2353
▁�������������̣�	-12.2363
�����£������	-12.2365
��2����������	-12.2365
�󣬶��	-12.2368
▁�̵	-12.2378
������߼�˵�����	-12.2389
������ͯ�	-12.2391
����̫���	-12.2398
�߽���	-12.2399
▁���˽���	-12.2402
��˹���	-12.2402
�޷	-12.2402
�᣿����	-12.241
▁�������	-12.2421
��̰��	-12.2424
�����̿	-12.2426
��˺���	-12.2437
�󾪵������	-12.2453
▁�׷����	-12.2454
©�	-12.2457
�򾻣�	-12.2457
�￴	-12.2475
▁����̨��	-12.2476
ͬ������	-12.2477
�������˰˽	-12.2501
��¥��	-12.2502
����˼����	-12.2504
���˯���	-12.2505
�޾�	-12.2517
���������	-12.2517
�����޼	-12.2522
̷�	-12.2526
㣬̤	-12.2532
▁��ͬ�	-12.2533
▁ͭ��	-12.2541
▁�˱��	-12.2541
�໰��	-12.2545
�ͯ���	-12.2551
▁ʹ�����	-12.2553
񣬼�	-12.2554
�����˻�	-12.2555
▁���̲�	-12.2558
��������»	-12.2558
������	-12.2563
ʾ���	-12.2564
����ʹ����	-12.2576
�����˼���1⁄2	-12.2576
��ʿ������	-12.2578
�����	-12.258
▁ʿ�	-12.2583
������	-12.2587
���1⁄4	-12.2588
񰰣�	-12.2589
���̨����	-12.2595
���޺��	-12.2597
���ׯ����	-12.2602
�̴�	-12.2606
�˸�����	-12.2606
▁������̫�	-12.2606
�԰����	-12.2611
����˴�·����	-12.2614
�����̫��	-12.2614
��̨�	-12.2615
�ˮ��������	-12.2621
�3⁄4��	-12.2629
�̡������	-12.2632
▁�����	-12.2639
ʻ��	-12.2641
£��������£�����	-12.2655
�����¡��	-12.2664
���ͨ���	-12.2676
����޴�	-12.2682
▁�÷	-12.2684
�����ͬ	-12.2695
󣬽���	-12.2696
���»�	-12.2704
޵�������	-12.271
�񣬲�	-12.2713
�˳������	-12.2713
��2���	-12.2723
�����޳	-12.2723
▁�˷�������	-12.2754
▁����ˮ�	-12.2756
▁����˯�	-12.2758
׹�����	-12.2761
񣬹	-12.2777
��˰���	-12.2783
�����̸	-12.2794
▁ͯ����	-12.2795
���򵹣��	-12.2796
����	-12.281
ʹ���������	-12.281
߼�	-12.2811
��ˮ�������	-12.2822
����˶	-12.2825
�̶��	-12.2848
˹���	-12.2865
���������	-12.2872
������	-12.2872
�����˲��	-12.2874
������˱	-12.2876
���׺	-12.2886
�����	-12.2891
̱	-12.2893
��˰�	-12.2907
��̾����	-12.291
���޺	-12.2911
ࡣ������	-12.2913
���˶	-12.2924
�3⁄4�	-12.2925
▁������·��	-12.2925
▁�಻�	-12.293
�޶���	-12.2931
�������ࡣ��	-12.2934
����1��	-12.2938
��ͬ������	-12.294
򡣰˽���	-12.294
�����ʿ��	-12.2953
󣬲�	-12.2954
̲���	-12.2964
���򣬾	-12.2973
;���	-12.2975
▁��¥	-12.2975
������ʺ	-12.2977
▁·�����	-12.2977
��ˮ1⁄2���	-12.298
▁��·�	-12.298
��	-12.2986
▁�1	-12.2993
���󣬸���	-12.2994
��������·�����	-12.2997
�󣬷�	-12.3002
����̨	-12.3002
▁Ⱥ	-12.3005
▁Ʒ	-12.3009
���˼�����	-12.3021
�⴦��	-12.3022
��̽�	-12.3023
�̥�	-12.3026
�޳	-12.3028
�˯����	-12.3029
�����׽����	-12.3029
�ꣿ�	-12.3034
▁ţ	-12.3036
��ʹ������	-12.3046
������߼���	-12.3051
��޴�	-12.3067
üɽ	-12.3067
�˧�	-12.308
▁�����˲	-12.308
�������·	-12.3081
�΢�	-12.3085
����1⁄4	-12.3088
���׾����	-12.3089
������ʿ˵�������	-12.3092
�£�˵��	-12.3096
���˺��	-12.3114
������̫��	-12.3116
�ͬ��ͬ�	-12.3117
▁�޺	-12.3118
�޵������	-12.3133
§	-12.3135
▁�������	-12.3141
����಻�	-12.3142
▁�����¡����	-12.3142
񡣡�����	-12.3154
���������	-12.3175
ʾ����	-12.3184
��̸	-12.3189
�΢	-12.3192
��˳��·	-12.3196
񣬲����	-12.3199
󣬷�	-12.3204
��������᣿	-12.3206
��΢	-12.3208
�����	-12.321
�ͣ���������	-12.3211
2���	-12.3212
���·�̣�����	-12.3219
̷�����	-12.3224
��˥	-12.3233
�ʺ	-12.3235
°	-12.3246
1�������	-12.3246
▁������˿��	-12.3246
▁��̨���	-12.3255
����1⁄2	-12.3259
���ͯ���	-12.326
▁���˾	-12.3272
̤	-12.3276
��������ͬ	-12.3278
�ʻ����	-12.328
��⻹�	-12.3299
�׾��	-12.3303
��2�������	-12.3305
������߼�	-12.3313
�������¥	-12.3313
���	-12.3313
▁ͣ������	-12.3321
޾���	-12.3324
�̧�����	-12.3332
����	-12.3332
,���	-12.3342
���˽������	-12.3346
▁ˮ��	-12.3358
˿�������	-12.3359
£�������	-12.3361
¶������	-12.3367
˩�����	-12.3376
�̾	-12.3387
;	-12.3388
���������	-12.3394
���ʿ�	-12.3394
�������񣬿�	-12.3394
�����̨	-12.3402
�������	-12.3403
حي	-12.3408
�˧��	-12.3418
̥	-12.3422
�����⹫�	-12.3425
������	-12.3428
�̵�	-12.3434
�˭�����	-12.3435
��������	-12.3442
�𵹣������	-12.3451
󣬿�	-12.3454
�©	-12.3457
񣬲�	-12.3465
▁�������£��	-12.3466
���˽����������	-12.3472
�����¡���	-12.3472
▁��¶�	-12.3476
▁��¥��������	-12.3482
�񣬺�����	-12.3498
�ͭ���	-12.3502
▁�߼��	-12.3504
���˾����	-12.3506
�������	-12.351
�󣬵��	-12.3531
�ꣿ����	-12.3533
��̶�����	-12.3536
�ˬ�����	-12.3538
����߿������	-12.3543
�󣬴�	-12.3545
��˭���	-12.3546
����	-12.3555
��̹	-12.3557
����	-12.3561
�	-12.3562
��׻�����	-12.3562
��˻���	-12.3569
▁̫�����	-12.3573
��ˬ����	-12.3576
������	-12.3581
▁������©�����	-12.3616
���������	-12.3618
�«�������	-12.3618
͸����	-12.362
̺��	-12.3623
����	-12.3623
����󺣡��	-12.3623
	-12.3626
�����	-12.3631
���͡���	-12.3634
����·�������	-12.3638
���;��	-12.3641
ôȴ	-12.3641
̥�	-12.3645
̡������	-12.3653
��󴦣���	-12.366
���¬	-12.3665
𹿶��	-12.3668
▁��ͯ�������	-12.3681
▁����˯���	-12.3681
�󾪵���	-12.3687
����������	-12.3691
�����˴��	-12.3693
̽����	-12.3694
̸�	-12.3694
[�����	-12.3697
������·������	-12.3697
�������	-12.3705
����̨�	-12.3718
򣬶�	-12.3727
����̤��	-12.3728
�׷�	-12.3728
������¡�	-12.3732
��1⁄2��	-12.3734
̻ܽ	-12.3737
�	-12.3739
�������˽����	-12.3742
���߾�	-12.3748
���̵���	-12.3759
�˴����	-12.3765
׶����	-12.3766
���޴��	-12.3773
��󾭣�����	-12.3774
�1�	-12.3777
��̵�	-12.3784
޵����	-12.3793
��¥̨	-12.3793
▁��ͬ��	-12.3798
�˧	-12.3799
��񣬽������	-12.3801
�����	-12.3814
��񣬹�	-12.3817
�񣬲��	-12.3818
���޵��	-12.3821
���޷�	-12.3832
��𹿶��	-12.3852
������	-12.3856
▁�˰��	-12.3864
▁�£��������	-12.3865
������⨺	-12.3878
▁���1	-12.3881
����˽�	-12.3886
԰��	-12.3887
��׹�����	-12.3892
����ʹʹ����	-12.39
���޶��	-12.39
�����˴	-12.3901
������ͭ�	-12.3902
�¡�������	-12.3907
󣬿	-12.3909
▁ͨ����������	-12.391
,	-12.3919
▁��������	-12.3919
▁�˳�	-12.3926
����˹	-12.3934
��������;	-12.3943
໰�����	-12.3947
ͬ��ͬ	-12.3957
�԰�����	-12.3968
��ͯ����	-12.3971
�������˲	-12.3972
��߾�	-12.3972
�����˶���	-12.3979
�����˷�	-12.3985
��΢��	-12.3987
�`��	-12.3989
▁�����˱������	-12.4001
▁ʿ���	-12.4013
˥��	-12.4019
̨ͭ��	-12.4025
�����ͣ��	-12.4048
��޺�����	-12.405
,�	-12.4068
¡������	-12.4072
����˰��	-12.4077
��	-12.4078
�ʺ�	-12.4078
▁�ͣ��	-12.4098
��ͯ���	-12.4107
���߿�	-12.4111
���˾�����	-12.4113
󣬰���	-12.4118
�󡣴�	-12.4127
����׶��	-12.4145
��������£�����	-12.4148
▁˯���	-12.4148
����·�����˽	-12.4149
Ȼû	-12.4149
�����߽���	-12.4149
�������˳	-12.4161
���޹��	-12.4162
��˸����	-12.4165
�ͨ������	-12.4174
��̱�	-12.4176
�¶	-12.4186
���	-12.4187
��˲���	-12.419
����׮�£����	-12.4192
����	-12.4193
▁���������˼��	-12.4201
׬�	-12.4212
ˮ��������	-12.4213
��񣬲	-12.4214
�ͬ������	-12.422
▁���׶����	-12.4221
ͥ����	-12.4223
�޼��	-12.4226
�,	-12.423
�������	-12.4258
�򡣡����	-12.4262
��˵�����˱�	-12.4275
����������	-12.4281
����˺��	-12.4284
����̧��	-12.4285
ɮȥ	-12.4287
��̦��	-12.4288
�	-12.4289
�������߾��	-12.4289
▁�˱���������	-12.429
�񣬶�	-12.429
�����©	-12.4304
���̣����	-12.4311
���޷	-12.4327
����£�����	-12.433
����	-12.4332
��������߽	-12.4335
�����̶���	-12.434
▁������	-12.4341
�̦��	-12.4344
�̺�����	-12.4345
����͹��	-12.435
�£����˽�	-12.4362
���̼������	-12.4364
�����˽����˵���	-12.4373
����̨���	-12.4377
���̩�����	-12.438
���ʹ������	-12.438
���«��������	-12.4382
·�����������	-12.4384
������򾻣���	-12.4385
��������⹫	-12.4398
󣬸�����	-12.44
�޵�������	-12.4411
�������˿�	-12.4418
�̤����	-12.4425
˯������	-12.4425
1⁄2��	-12.4426
���˽���������	-12.4432
ʯ̨	-12.4444
������ʿ	-12.4455
�׾	-12.4477
��������׿�����	-12.4478
▁�޲��	-12.4479
�������	-12.4482
��,��	-12.4485
����1�	-12.4487
������׼	-12.4499
˱�����	-12.4501
�������߿	-12.4511
˼������	-12.4515
͹�	-12.4524
޶��	-12.4542
�����2��	-12.4542
�������ͣ�	-12.4543
▁��������	-12.4545
͡	-12.4546
����׽׽	-12.4551
▁�˶������	-12.4555
󣬹�	-12.4556
�𹿰�����	-12.4557
���§�	-12.4577
�̨	-12.4587
▁���˻�	-12.4596
▁�1�����	-12.4602
񣬳�	-12.4604
˯�¡�	-12.4616
▁��̨�	-12.4617
����򣡡�����	-12.462
�3�����	-12.4624
▁���˱��	-12.463
���˴��£�	-12.4639
▁�����ʺ	-12.4649
���԰���	-12.4649
▁׹�	-12.4649
▁�������˽����	-12.4655
▁����·���	-12.4665
1�	-12.467
޽�	-12.4676
������󺣣��	-12.4687
�����ˮ����	-12.4691
������΢�����	-12.4692
��˯�����	-12.4695
▁ˮ���	-12.4697
▁���˶�	-12.4699
����̣���	-12.4699
�˿�����	-12.4701
▁���������	-12.4702
��޴	-12.4702
ɽʯ	-12.4707
��߻	-12.471
��˽����������	-12.4717
׷������	-12.4726
���¶���	-12.4726
▁��ʿ��	-12.4737
���·�̣�	-12.4751
����˼�����	-12.4756
▁������¶����	-12.4766
��̵�����	-12.477
�˵��˵����	-12.477
̬�����	-12.4775
���¿��	-12.4794
�޺�������	-12.4796
�̧���	-12.4801
▁¥�	-12.4802
�3⁄4����	-12.4811
������߾�	-12.4812
�������ˮ	-12.483
·������˽���	-12.4833
鿱����	-12.4842
�񣬶��	-12.4843
▁¥���	-12.4846
▁���͸	-12.4848
▁�����˽�	-12.4852
��̷����	-12.4852
��͡���	-12.4857
�����޹�	-12.486
�����᲻�	-12.4867
��̰	-12.4871
▁�������˽��	-12.4876
������ʼ�	-12.488
���߻�	-12.4884
򣿡�	-12.4899
���������	-12.4904
⻹�	-12.4915
�򣬵��	-12.4917
΢	-12.492
��������·��	-12.4922
�������￴�	-12.4927
˵���˽���	-12.4927
�಻�����	-12.4928
�̨���	-12.4932
��׿	-12.4939
���𹿰�����	-12.4941
������↑�	-12.4948
��	-12.4956
��׼	-12.4974
�޿�	-12.4976
����׹	-12.498
�����	-12.4982
▁˩	-12.4989
�󽫣�	-12.4993
��޽��	-12.4997
�΢����	-12.5012
���ͨ������	-12.5016
▁˽������	-12.502
����̳��	-12.5024
▁��ˮ����	-12.5029
▁���£���	-12.5032
1⁄4�	-12.504
����̣����	-12.504
��������￴	-12.5041
▁��ʹ��	-12.5042
±�����	-12.5048
����	-12.5067
���3⁄4���	-12.5071
񣿡�	-12.508
▁ʼ��	-12.5082
��ʹ��������	-12.5091
▁���߿	-12.5094
�����ׯ	-12.5098
����¥�����	-12.5111
�����˿	-12.5118
���������	-12.5136
���˷��£��	-12.5137
▁��԰	-12.5138
�򵹣����	-12.5142
����˿�����	-12.5147
���	-12.5148
��	-12.5148
���ʽ��	-12.516
�����ʹ���	-12.516
��԰��	-12.5168
�������˱	-12.5169
����˷��	-12.5178
���1⁄2�	-12.5181
ͣ�������	-12.5183
��˻�����	-12.5186
����˭�	-12.5206
�̥�������	-12.521
���԰˽�	-12.5212
���޻���	-12.5212
▁��ͬ���	-12.5215
▁��·����	-12.5226
▁�˷��	-12.5229
�̽�	-12.5232
▁��·���	-12.5235
▁׽��	-12.5237
��������̫�	-12.5255
��	-12.5261
����3⁄4�����	-12.5266
��������ͬ�	-12.5269
���޽��	-12.5288
����2��	-12.5298
▁���˴��	-12.53
������	-12.53
���ʺ�����	-12.5304
��������	-12.5305
���̱�	-12.5314
��ͬ�����	-12.5318
▁������ͬ	-12.533
����;��	-12.5333
�̾�	-12.5333
�������ʾ��	-12.5335
ʹ����������	-12.5338
»�°�	-12.5338
�����·������	-12.5338
▁����	-12.5341
������·����	-12.5343
J	-12.5344
뱥	-12.5344
D	-12.5344
嵭	-12.5344
次	-12.5344
簲	-12.5344
齡	-12.5344
뽵	-12.5344
𴦿�	-12.5344
򾳽	-12.5344
𡣶	-12.5344
X	-12.5344
Ŧ	-12.5344
ʃ	-12.5344
Ւ	-12.5344
ຣ	-12.5344
ི	-12.5344
ཿ	-12.5344
▁ˬ���	-12.5344
▁�������⴫�	-12.5344
▁�򻰣�����	-12.5344
ⶥ	-12.5344
ソ	-12.5344
㳣	-12.5344
俪	-12.5344
尲	-12.5344
屦	-12.5344
氡	-12.5344
氮	-12.5344
浤	-12.5344
綼	-12.5344
黹	-12.5344
鿪	-12.5344
뷵	-12.5344
븮	-12.5344
�䷨��	-12.5344
���󡣽�	-12.5344
�󼯡�	-12.5344
▁͢��	-12.5344
㳵	-12.5344
䴺	-12.5344
侪	-12.5344
뷴	-12.5344
컪	-12.5344
]�]����������	-12.5344
Ē	-12.5344
Ʃ	-12.5344
Ԓ	-12.5344
Ԣ	-12.5344
֒	-12.5344
෨	-12.5344
ⵣ	-12.5344
ⶤ	-12.5344
㶥	-12.5344
㽭	-12.5344
㾪	-12.5344
㿪	-12.5344
䱸	-12.5344
䳤	-12.5344
䳶	-12.5344
幬	-12.5344
沽	-12.5344
涡	-12.5344
湪	-12.5344
澻	-12.5344
覡	-12.5344
谭	-12.5344
赱	-12.5344
非	-12.5344
鮣	-12.5344
鳵	-12.5344
鹬	-12.5344
龭	-12.5344
굹	-12.5344
껢	-12.5344
껹	-12.5344
꾫	-12.5344
뱪	-12.5344
벮	-12.5344
붥	-12.5344
뺨	-12.5344
뺵	-12.5344
뻢	-12.5344
족	-12.5344
첢	-12.5344
춡	-12.5344
취	-12.5344
측	-12.5344
�������	-12.5344
�⵶����	-12.5344
����﹬�	-12.5344
���������	-12.5344
����񶳣��	-12.5344
���񡣰	-12.5344
��񲻼	-12.5344
��񳯵	-12.5344
��򳤰��	-12.5344
�񡣵�	-12.5344
�󡣰˽	-12.5344
�󺦡��	-12.5344
𹭻�����	-12.5344
𾭡�	-12.5344
򡣺����	-12.5344
򽻴	-12.5344
򾣬���	-12.5344
󡣷��	-12.5344
汾	-12.5344
ȯ	-12.5344
⻨	-12.5344
㰪	-12.5344
洹	-12.5344
紳	-12.5344
紸	-12.5344
굱	-12.5344
췭	-12.5344
������	-12.5344
���������⴬	-12.5344
����������󻹲�����	-12.5344
�󡣼�	-12.5344
󱯣���	-12.5344
b	-12.5344
e	-12.5344
ì	-12.5344
Ŋ	-12.5344
Ȭ	-12.5344
Ѥ	-12.5344
Ԭ	-12.5344
ެ	-12.5344
ণ	-12.5344
౻	-12.5344
ิ	-12.5344
ྡ	-12.5344
ᄇ	-12.5344
ᄚ	-12.5344
᰹	-12.5344
ᵱ	-12.5344
▁ٍ����	-12.5344
▁�������񣬴	-12.5344
⳼	-12.5344
⺦	-12.5344
ォ	-12.5344
㰵	-12.5344
㵥	-12.5344
㶾	-12.5344
㷿	-12.5344
㸡	-12.5344
㸻	-12.5344
㼣	-12.5344
㿰	-12.5344
䱳	-12.5344
䳦	-12.5344
䳯	-12.5344
䴳	-12.5344
両	-12.5344
伴	-12.5344
峤	-12.5344
巨	-12.5344
庮	-12.5344
欽	-12.5344
沢	-12.5344
浱	-12.5344
濾	-12.5344
硡	-12.5344
籺	-12.5344
粲	-12.5344
絹	-12.5344
緽	-12.5344
续	-12.5344
贵	-12.5344
赤	-12.5344
趤	-12.5344
轫	-12.5344
辡	-12.5344
鲨	-12.5344
ꡡ	-12.5344
꼻	-12.5344
꽽	-12.5344
꿪	-12.5344
롢	-12.5344
배	-12.5344
뱻	-12.5344
볪	-12.5344
뵣	-12.5344
뷲	-12.5344
뻪	-12.5344
뼬	-12.5344
뾭	-12.5344
뾻	-12.5344
챨	-12.5344
춪	-12.5344
켫	-12.5344
����	-12.5344
�����	-12.5344
�����	-12.5344
������..�	-12.5344
���������๩����	-12.5344
��������𿴾����	-12.5344
�������󣬽�����˨��	-12.5344
�������󼯾���	-12.5344
�����񡣺�	-12.5344
�����󡢷�����	-12.5344
����򾻰�	-12.5344
��𲻴��	-12.5344
��𲻸	-12.5344
��񵽹󴦣��	-12.5344
��򵨱�	-12.5344
��󴵴����	-12.5344
�𵽿��	-12.5344
�񡣻�	-12.5344
�򡣱	-12.5344
�󷽣������	-12.5344
𡣱	-12.5344
𱦡�����	-12.5344
𲻲	-12.5344
𻰡����	-12.5344
򰡣�����	-12.5344
򲻸	-12.5344
򷢹	-12.5344
󡢽��	-12.5344
󣿡���	-12.5344
󱯵��������������	-12.5344
󵨷��	-12.5344
󷢴	-12.5344
󻼡���	-12.5344
U	-12.5344
ȧ	-12.5344
ˮ�𵤣��������£�	-12.5344
Ң	-12.5344
▁���	-12.5344
ⷲ	-12.5344
䵤	-12.5344
䷲��	-12.5344
淭	-12.5344
篽	-12.5344
綨	-12.5344
鳶	-12.5344
뻣	-12.5344
���⹦����	-12.5344
�������᷽	-12.5344
��������󾭹�������	-12.5344
��񹦡�	-12.5344
��񹭡�	-12.5344
�򶫱��޷��	-12.5344
A	-12.5344
·��᫣�������	-12.5344
Ĥ	-12.5344
Ѯ	-12.5344
ෳ	-12.5344
༲	-12.5344
ᄒ	-12.5344
ỽ	-12.5344
⳵��	-12.5344
㱧	-12.5344
㹫	-12.5344
㻶	-12.5344
㽿	-12.5344
䰴	-12.5344
䶯	-12.5344
丸	-12.5344
崦	-12.5344
嶨	-12.5344
沨	-12.5344
粿	-12.5344
絣	-12.5344
綤	-12.5344
覷	-12.5344
贲	-12.5344
赴	-12.5344
躡	-12.5344
輣	-12.5344
飺	-12.5344
鳤	-12.5344
鵯	-12.5344
꼯	-12.5344
봹	-12.5344
뷡	-12.5344
캮	-12.5344
캺	-12.5344
�����	-12.5344
�໢���	-12.5344
�	-12.5344
��࿪	-12.5344
���಻�ࡢ����	-12.5344
���ᷢ���	-12.5344
���⻾��	-12.5344
����⥡����󡢷��	-12.5344
������	-12.5344
��������˽䷽	-12.5344
�����������󣡽�	-12.5344
���������񡣳�	-12.5344
������󻼣���	-12.5344
����񡢶��	-12.5344
����񡣽��	-12.5344
���񱭣�	-12.5344
�񡣹�	-12.5344
𶥷�	-12.5344
񰲣��	-12.5344
򡣳�	-12.5344
򣬰˽�	-12.5344
򽫽	-12.5344
󡣬	-12.5344
㻤	-12.5344
湯	-12.5344
볾	-12.5344
�⵹������������	-12.5344
���񷨣���	-12.5344
�򾻶�	-12.5344
󹧣������	-12.5344
^���	-12.5344
®	-12.5344
ʟ	-12.5344
բ	-12.5344
ے	-12.5344
⳸�	-12.5344
⺢	-12.5344
㷲	-12.5344
亱	-12.5344
潹	-12.5344
貨	-12.5344
鲢	-12.5344
ꪹ	-12.5344
븩	-12.5344
츶	-12.5344
캴	-12.5344
�	-12.5344
����	-12.5344
������᫣�	-12.5344
����񲻿	-12.5344
���򼣬	-12.5344
���󡣹�	-12.5344
�󵶣�	-12.5344
�󷹡�	-12.5344
󺦣�	-12.5344
󻧣���	-12.5344
����˳����	-12.5344
ᡶ	-12.5344
顰	-12.5344
鶼	-12.5344
�๲	-12.5344
����	-12.5344
������򾻲�	-12.5344
�󡣻	-12.5344
▁ͅ¿��	-12.5344
ɤ	-12.5344
鶵	-12.5344
������������	-12.5344
�ʹ����	-12.5344
��ͦͦ�	-12.5344
�񲻹�	-12.5344
,��������,���	-12.5344
غمم	-12.5345
��䷿��	-12.5345
������˶����󺣣����	-12.5345
������̧̧���	-12.5345
�����1⁄2�	-12.5345
׺׼��������	-12.5345
«����«����������	-12.5346
׮�¶��	-12.5346
33�	-12.5346
�˻ʺ	-12.5347
��������͹˲��	-12.5347
�������	-12.5348
▁ͅ޵	-12.5348
���ͨ���󣬽�	-12.5348
�˽����������	-12.5349
�޵׵	-12.5349
̫�͹��	-12.5351
׮�����	-12.5351
����ͬ��3⁄4����	-12.5351
�£�����	-12.5351
�¶ˮ����	-12.5351
���˭�	-12.5351
��£��	-12.5352
▁̄��ͯ�	-12.5352
▁¥�£��������	-12.5353
�߼�ׯ��	-12.5353
ٰݱ	-12.5354
���ٰ��޺����	-12.5355
����˳���	-12.5355
▁�⿪	-12.5355
ͨͬ���	-12.5356
��̥ˮ����	-12.5357
▁̨ͭ�����	-12.5357
��󾭣�·����	-12.5357
̰��	-12.5358
▁ʹ����ʹ����	-12.5358
▁����ʿ���������	-12.5359
˽�׬��������	-12.5359
�����	-12.5359
񣬷����	-12.536
����1��͹�	-12.5361
����񾪣��	-12.5363
ͯ���	-12.5363
2	-12.5363
��ʿ����	-12.5364
�£�����˩����	-12.5364
����̣����̣���	-12.5366
▁���񣬴�����	-12.5366
������ͥ	-12.5372
▁�󰡣���	-12.5373
˸�̧���	-12.5374
��������̱�	-12.5376
�����������	-12.5377
����������ʹͭ����	-12.5379
▁��ʹ��ͨ�������	-12.5379
�԰��	-12.538
̷������	-12.538
�����˱����	-12.538
��󺣣�	-12.5381
̤�˷��	-12.5382
▁�����󴦣�������	-12.5383
����������򣬾ʹ��	-12.5383
�������°	-12.5383
��ͨ��ˮ��	-12.5384
شم	-12.5384
ͥԺ	-12.5387
粻ͬ	-12.5387
▁˵���������˳	-12.539
غم	-12.539
�«���	-12.5393
�����˻�԰	-12.5393
Цӯӯ	-12.5397
���󣬳�	-12.5399
�����̧ˮ	-12.5399
��͸��	-12.54
���˷�̥��	-12.5402
�˺��������£���	-12.5403
Vɱ	-12.5406
▁̄��	-12.5409
��������	-12.5412
�˴˴�������	-12.5413
▁ͦ��	-12.5416
˵�1⁄4�ׯ�����	-12.5417
▁�������໹��	-12.5417
▁���߼�˵����	-12.5417
�˷�������ˮ��	-12.5418
��ͯ����˯	-12.5419
�����̫��	-12.5419
̷ɲ	-12.5421
Ƕg	-12.5425
���˹����	-12.5436
��׼�	-12.5443
صل	-12.5444
▁���󾪣����	-12.5446
�󣬹�����	-12.5447
�·�£�	-12.5448
���˲�԰�	-12.5449
˵�˴����	-12.5449
��΢����	-12.5455
▁3�����	-12.5455
����˹�������	-12.5456
��������ͤ�£�	-12.5457
����޳��˵��	-12.5458
▁̲	-12.5458
�̡�������	-12.546
▁�̲�̶�	-12.5462
▁�󣬰�	-12.5463
��˭�������	-12.547
�����˽������	-12.5471
▁׮�	-12.5473
��ʾ	-12.5474
��̴���·������	-12.5479
�̧�����	-12.5483
▁�����£���	-12.5483
�2�����	-12.5483
▁�޽��	-12.5486
ͤ����	-12.5497
���°���·����	-12.5498
����˲��£���	-12.5498
▁�̼��	-12.5501
�����˻	-12.5516
ˮ�£�	-12.5519
▁�׺	-12.5523
���ͤ���	-12.5526
�ͬ����԰��	-12.5529
�������˰	-12.553
ʹ�������������	-12.553
▁�������̳�	-12.5535
Ħȭ	-12.5537
������޹��	-12.5538
ɨɨ	-12.5542
Ƶļ	-12.5545
▁�������񣬼��	-12.5549
��������ʹ���÷���	-12.5552
��˶�����	-12.5552
øɸ	-12.5553
�˰��£�	-12.5556
��������������	-12.5556
���ˮ�������3���	-12.5566
�򲻹�������	-12.5568
ѲѲ	-12.5568
�򴦣���������	-12.5568
�����˶��	-12.5569
▁˭����	-12.5572
▁�򾻣��	-12.5572
������ˮ����¥	-12.5573
▁;���	-12.5573
���޻	-12.5573
�¥����	-12.5576
�����¥�	-12.5577
▁¥��������	-12.5578
����������񱣻�����	-12.5579
▁��	-12.558
�󣬶�����	-12.5582
�񣬸�	-12.5582
⯡����	-12.5583
▁ͅ�˵�	-12.5585
�˳����	-12.5597
▁׼�	-12.5599
̳�	-12.5606
▁»�	-12.5608
˯������	-12.5612
��󸹬	-12.562
▁�������޳��	-12.5627
�ͧ���	-12.5631
����׹���	-12.5633
��̤���	-12.5634
۶࣬	-12.5635
▁��ͣ	-12.5639
׽������	-12.564
▁��ͦ����	-12.564
��̣�˵	-12.5641
׸	-12.5641
�⿪����	-12.5644
���̫��̫�	-12.5652
▁�˽�����������	-12.5657
�󿪶��������	-12.5658
▁ͤ���������	-12.5658
▁�޲����	-12.5665
���������£��	-12.5673
����˴���	-12.5674
��˵�����������	-12.5676
�󻰣�����	-12.5679
▁���	-12.568
▁���£����	-12.5681
̣��������	-12.5681
��񵽴	-12.5682
˩������	-12.5685
��̵����	-12.5686
▁�᲻�	-12.5689
����̳	-12.569
��߼����	-12.5691
񣬹����	-12.5696
�����������	-12.5703
˲	-12.5703
▁��	-12.5704
˵�ʿ���	-12.5707
�⿤������	-12.5708
޸���	-12.571
�������	-12.5718
·�������˲�	-12.5724
���·���˴���	-12.5726
�����߼	-12.5728
▁��ˮ·��	-12.5733
�⹳�	-12.5735
��񣬴������������	-12.574
����߻	-12.5746
˳����	-12.5749
▁�������˼	-12.5755
���׼���	-12.5766
�˹������	-12.5771
▁�����߽���	-12.5773
�,�	-12.5777
��ᳪ	-12.5783
ڿڳ	-12.5784
▁�޷���	-12.5788
���޵����	-12.5793
����������·�	-12.5794
��̾���	-12.5798
�����˺��	-12.5807
�����ͯ�	-12.5816
��������ٰ	-12.5817
▁�߿������	-12.582
ӹҽ	-12.5821
����˹�	-12.5824
▁ɭ	-12.5825
�󣬸����	-12.5831
�����	-12.5835
˾��£�	-12.5836
▁������ͨ�������	-12.5836
�ࡢ	-12.5839
��˻����	-12.5841
����������	-12.5845
���˼˼���	-12.5845
���󣬿��	-12.585
˳��˹	-12.5852
͹	-12.5857
�ʹ򣬱�����	-12.5859
��˼�	-12.5863
�̼�	-12.5866
▁˩��	-12.5869
▁ˮ������	-12.5871
˵������������	-12.5874
����๤����	-12.5877
̵���	-12.5882
▁��׮����	-12.5883
𹿡���	-12.589
�಻	-12.5891
���˽𹿰����������	-12.5894
ɳɷ	-12.5898
�󣬰���	-12.5898
�޺����	-12.5901
��ͦ	-12.5904
󣬺	-12.5905
▁�׹���	-12.5909
▁�����˸��	-12.5912
������£����	-12.5921
������������񣡡���	-12.5923
��ʹ˰	-12.5925
��˿����	-12.5926
��޷	-12.5927
�԰���	-12.5929
ǣȮ	-12.5932
�����˾��	-12.5933
����඼�	-12.5944
󣬼���	-12.5944
���̤	-12.5949
�󲻴	-12.595
▁�������	-12.5953
▁�˰���	-12.5954
����̰��	-12.596
ͥ���	-12.5976
�˷��̣������	-12.598
�	-12.598
������˼������	-12.5981
������˷��	-12.5981
���¥��	-12.5983
�˷��	-12.5988
���ࡢ	-12.5995
��¡����˽	-12.5996
�������˵�˰	-12.5997
ĪŤ	-12.6008
����󺣳�����	-12.6009
�޶	-12.601
߼��	-12.6013
▁����ͦ��	-12.6015
�޲��	-12.6029
���׸�	-12.603
▁�����󣬻�	-12.6035
˵�˽����	-12.6037
��԰�����	-12.6039
��������󵨵�	-12.6052
��[��	-12.6056
�̰����	-12.6058
���󣬾������	-12.6058
�����ׯ�	-12.606
▁˧�����	-12.6065
׾�	-12.6068
▁���ͣ����	-12.6071
���׭��	-12.6071
▁�˾	-12.6075
󣬺���	-12.6078
ȵð	-12.6079
▁�����������׺	-12.6082
��߽��	-12.6085
��˰˰	-12.6085
▁��������ˮ��	-12.6095
��������˰	-12.6097
������÷��	-12.6107
�����¥��	-12.6113
���˵����������	-12.6121
������˶	-12.6122
�̣����	-12.6125
����˽	-12.6126
����	-12.6144
üƽ	-12.615
���̫�����	-12.6156
�̩�	-12.6161
��������£��	-12.6162
�����˳�	-12.6164
������ˮ��������	-12.617
▁���׼�����	-12.6175
�����������	-12.6181
�ͨ����	-12.6182
��̺���	-12.6184
�£���1	-12.6194
����̼���	-12.6194
�������������𲿵	-12.6197
▁������	-12.6197
���޸��	-12.62
ǷŻ	-12.6202
��÷�	-12.6203
▁��÷�����	-12.6203
���¶��	-12.6207
�������ˮ	-12.6208
������	-12.6213
�����˷	-12.6214
�򣬻���	-12.6214
▁�����޳	-12.6215
▁ʼ	-12.6219
▁ש	-12.6226
����	-12.6226
����������˵����	-12.6229
������޳�	-12.6235
���������	-12.6237
������ˮ����	-12.6241
��ͣ������	-12.6248
�˹˹�	-12.6253
���������¡�	-12.6255
������߻��˵���	-12.6255
▁���߿����	-12.626
�����������	-12.6267
�򾻡���	-12.6268
ŵȹ	-12.6275
������׽��	-12.6278
�ˬˬ����	-12.6282
���������	-12.6282
��ˮ���������	-12.6283
��򾻣���	-12.6287
�����˳����	-12.6291
�����	-12.6293
෿�	-12.6302
ɵĺ	-12.6304
��������̣�	-12.6308
����������⹫	-12.6312
�˧���	-12.6315
����͸�	-12.6317
�����⹳	-12.6318
ɵú	-12.6318
󣬽	-12.6322
񣬵����	-12.6328
��������̼	-12.633
▁���¡�����	-12.6331
▁����̴����	-12.6333
̫����ͬ����	-12.6334
▁ͬȥ	-12.6341
���̸����	-12.6342
�����⹫����	-12.6351
▁�޶�	-12.6352
�޸�ˮ���	-12.6366
�򵹡����	-12.6378
񣡡�	-12.6381
1⁄4�ׯ	-12.6381
�˱���	-12.6382
���3��	-12.6384
���򣬸����������	-12.639
˥���������	-12.6392
̦޺	-12.6397
�����¥���	-12.6401
˵���߽�	-12.6405
���¿�	-12.6415
��߿�	-12.6418
�߾����	-12.642
׽׽��	-12.6426
ͯ��˯	-12.6429
�׶񣬲����	-12.6435
▁���������˽	-12.6438
▁���˼��	-12.6438
���˼�˽����	-12.6438
�����	-12.6443
����˽����	-12.6444
���������߼�	-12.6448
������˲�	-12.6453
�������񰰣���	-12.6453
ǵð	-12.6456
���޼	-12.6456
▁�˲�	-12.6471
�˳˳��	-12.6479
ͬȺ	-12.6481
�£����������	-12.6481
�ׯ����	-12.6482
˵�����˽���������	-12.6486
▁ů	-12.6487
�鿱	-12.6497
�����޺��������	-12.6499
�򵹣���	-12.6503
▁�������1⁄2��	-12.6504
����⹫������	-12.6508
˧�������	-12.6509
�̹�»�	-12.6512
̫�����	-12.6515
1⁄4�ׯ�	-12.6518
��	-12.6522
���	-12.6523
�������޳��	-12.6525
▁�����￴	-12.6543
ԳԵ	-12.6546
����˶���	-12.6547
��ͨ�����£��	-12.655
�	-12.6553
▁�	-12.6553
▁��޼��	-12.6556
����˵����������	-12.6559
▁�޲���	-12.6561
͡�������	-12.6567
�˩�����	-12.6571
���޵���	-12.6576
��ˮ���	-12.6576
�鿱�	-12.6581
���«	-12.6583
�͢��	-12.6584
▁���޺�	-12.6587
ͬһ	-12.6598
������׸����	-12.6601
���������޵	-12.661
▁������������ׯ�	-12.661
·�˿����������	-12.6618
����̽	-12.6619
�⵺��	-12.6619
�̱	-12.6621
▁���޲�	-12.6621
̫�׽��	-12.6625
������˹	-12.6627
▁�׼�	-12.663
▁��ׯ���	-12.6631
���¶�����	-12.6632
������2�	-12.6634
��[���	-12.6635
�������������	-12.6638
ǰŬ	-12.6643
������̨�	-12.6643
úú	-12.6646
¥��	-12.6655
����ʹ�����	-12.6655
���ˮ����ˮ	-12.6662
�������������	-12.6666
▁���������	-12.6672
▁��¥��	-12.6672
�����·�����˽�	-12.6672
������˥�	-12.6674
������޵	-12.668
▁����������̫�	-12.6683
ȥ̽	-12.6686
����˺�˵�����	-12.6687
�����£��̲�	-12.6688
ٰ��	-12.67
����������޶���	-12.6703
���̵��	-12.6704
�����̻	-12.671
���1���	-12.6712
ͤ��	-12.6713
ɹõ	-12.6717
����3⁄4	-12.6719
▁̥�	-12.6719
�����¶	-12.6724
󡣴�	-12.6724
▁������·�	-12.6725
▁��˵����̫	-12.6733
�����⸮��	-12.6735
������޹	-12.6739
�̧�������	-12.6742
˰���·���	-12.6746
�����˴�˵�����	-12.6748
���������˽���	-12.6748
𹿰���������	-12.6749
�����޸���	-12.6756
���������ʺ�	-12.676
��������¡�	-12.6765
���,	-12.6767
�ͥ��	-12.6776
▁˾��	-12.6777
���׮�£�	-12.678
▁����·����	-12.6782
����ʽ��	-12.6785
ɳɵ	-12.6786
▁�޴����	-12.6787
����񣬶�	-12.6787
�����̲�	-12.6792
�������޵�	-12.6794
ЩѪ	-12.6797
�����¡����	-12.6799
����̨�£����	-12.6801
����˳·��	-12.6802
������͡�	-12.6806
����޲�	-12.6809
��������˯	-12.6816
�������ʹ����	-12.6819
��̦�	-12.6821
▁���������޷	-12.6828
�����������	-12.6828
������������˵	-12.6829
����ʹ���̣����	-12.6829
��ٰ	-12.6833
��¶�������	-12.6834
��˽��������	-12.6837
��£��˼	-12.6838
▁ͭ�	-12.6839
����ͤ	-12.684
oô	-12.6842
򸾡��	-12.6846
�ͭ��	-12.6851
�ˮͨ�����	-12.6854
�̴	-12.6858
�����˶��	-12.6859
▁�͡�������	-12.6861
���׾��	-12.6872
�����޺�����	-12.6874
����͡������	-12.6874
���񣬸��	-12.6876
�ʹ����ͨ��������	-12.6877
�׽���	-12.6879
�˵������������	-12.6882
���򣬾��	-12.6884
▁���˻��	-12.6884
��ʹ��ͨ	-12.6886
���ͨ���󣬱����	-12.6901
▁ͬ����	-12.6903
˽��������	-12.6908
̫����	-12.6917
���,�	-12.6926
�¬	-12.6926
����˵�󻰣������	-12.6927
������˾�	-12.6931
▁���˶��	-12.6935
���̾�	-12.6937
�����̼	-12.6939
ʹ�𹿰���	-12.6942
▁x	-12.6943
೤�������	-12.6944
��򲻳	-12.6949
��˶������	-12.695
▁�̻���	-12.6952
΢�����	-12.6956
�˷��£��������	-12.6958
▁����ͨ����	-12.6962
�������������	-12.6962
�������·������˽�	-12.6964
·;	-12.6964
�����ͣ	-12.6971
▁�񣿡�	-12.6973
▁̄�����	-12.6974
���𴦣���	-12.6976
����ͨ����	-12.6976
�����	-12.6976
��ͨ���󣬱	-12.6982
▁�˶	-12.6984
��˵˵����	-12.6995
����׮���	-12.6996
ֲָ	-12.6996
�ʿ���������	-12.7001
���������·�	-12.7003
������̫	-12.7006
����£�������	-12.7007
1����	-12.7009
��𹿰���	-12.7017
���޷���	-12.7017
�����������	-12.7019
�˴������	-12.7027
▁��׽�	-12.704
▁�����������	-12.705
��������꨽��	-12.7051
�����������˼	-12.7052
«	-12.7052
ʿ������	-12.7056
���̳�	-12.706
����󣬿�����������	-12.7061
�ٰ���	-12.7068
▁��������˭�����	-12.7084
▁��ͬ����	-12.7086
▁���˸�	-12.7092
����׽��	-12.7097
̸����	-12.7102
��������2��	-12.7105
������������󡣳��	-12.7109
������̨����	-12.7111
�������ͨ	-12.7113
񣿡��˽��������	-12.7116
▁���԰	-12.7119
�޴���	-12.712
�������������󺣣�	-12.7123
▁ͭ�����	-12.7126
▁�����2�	-12.7126
3⁄4	-12.7128
�	-12.7131
©���	-12.7133
˵����ͯ�	-12.714
��̫��ʹ	-12.714
�������̺����	-12.7144
�����˼���	-12.7152
�𹿰�������	-12.7167
�����������˵�	-12.7172
ʾ�����	-12.7172
���̸���	-12.7175
�	-12.7179
�򣬺���	-12.7179
�������˽	-12.7191
�1�����	-12.7194
ʾ��������	-12.7198
ͬ��ͬ���	-12.7199
ʺ�����	-12.7213
������˿�	-12.7214
�˵�����������	-12.7216
�������	-12.722
�󾭣�	-12.722
ʹ˴����	-12.7221
��𹿰�����	-12.7223
▁��͸�	-12.7226
������׾���	-12.7231
���󣬶	-12.7234
�ͦ	-12.7237
�򶫣���	-12.7246
����˶������	-12.725
���������̣�	-12.7254
����������񽫣�	-12.7255
����޵	-12.7255
▁ʬ	-12.7259
▁���͡������	-12.7262
󣬶	-12.727
����̷����	-12.727
������˵��ˮ��	-12.728
˹��£�	-12.728
߼������	-12.7281
˻����	-12.7283
ǵĺ	-12.7288
▁���޼�	-12.7289
▁����������	-12.7291
�׵�������	-12.7299
▁�1⁄4������	-12.73
ٰݴ	-12.7301
���̹�»�	-12.7309
��°��	-12.731
�󡣵���	-12.7314
�̼��	-12.7315
󣬱	-12.7316
˵���˽��������	-12.7324
▁�̰	-12.7339
�͡�������	-12.7346
���͹���	-12.735
�̤��	-12.7351
����������	-12.7358
�1⁄2���	-12.7371
֪ͨ	-12.7372
������̳����	-12.7375
����˽���˵��	-12.7376
��޵���	-12.7381
��������	-12.7386
Ҫһ	-12.7388
▁�����߼���	-12.7397
��3	-12.7414
���̾��	-12.7415
����·ͨ���������	-12.7421
▁�������¡��	-12.7423
��̳���	-12.7424
�󣬲����	-12.7431
��`�	-12.7434
▁�������޲�	-12.7436
▁�˹����������	-12.7439
���˴˹	-12.744
��¡������	-12.7448
���[	-12.7454
򣬴�����	-12.7455
����񣡳�����	-12.7455
���̨�£�	-12.7459
·�	-12.7463
��񣬾�	-12.7471
�᲻����	-12.7472
��ͯ��ͯ	-12.7476
��������	-12.7477
��ٰ���	-12.7479
����޹�	-12.7481
������������	-12.7484
�������̻�	-12.7486
ɦͬ	-12.7489
▁���̹	-12.7506
���������̫��˵	-12.7507
˭�	-12.7514
▁ͯ�	-12.7517
����޺	-12.7523
�������ʹ��	-12.7526
󴦵�	-12.753
�˲�����	-12.7532
�˼���1⁄2	-12.7533
������ʿ�	-12.7535
ٰ�����	-12.7537
�����­��	-12.7539
��಻��	-12.7541
▁ȭ	-12.7546
������������	-12.7547
��׵���	-12.7548
���������1	-12.7549
�����᣻��������	-12.7553
˼��˼	-12.7554
���̺	-12.7558
������	-12.7565
�������߽�	-12.7565
�˽������	-12.7567
��������﻽�����	-12.7579
�̽�������	-12.7579
���ʹ�������	-12.758
�΢��	-12.7581
��˵˵�������	-12.7581
˵����˵	-12.7585
������޷����	-12.7588
����3⁄4��	-12.7591
�಻��	-12.76
�˾��������	-12.7606
▁��ׯ�	-12.7614
��޺����	-12.7617
�����޽���	-12.762
����˱�	-12.7625
�⵴����	-12.7625
�񣡡����	-12.7629
����1⁄2�	-12.7636
▁�˹������	-12.7636
▁���������£��	-12.7642
▁��	-12.7645
��±	-12.7645
򡣵�����	-12.7658
��������1�����	-12.7668
�׻	-12.7675
▁������̧��	-12.7678
���¡����˽	-12.7678
����׶���	-12.7681
���	-12.7682
���򵹣���	-12.7689
▁�˵�����	-12.7697
▁���̷������	-12.77
󵨣���������	-12.7701
򣬷��	-12.7703
�¡���������	-12.7705
���������	-12.7712
����⿴�����	-12.7714
���񣬼����	-12.7721
��׽������	-12.7725
���˯˯��	-12.7728
�����޵	-12.773
��˸	-12.7731
���̻�	-12.7734
�̰��������	-12.7757
▁���������޺����	-12.7762
▁����˵������	-12.7764
��ʽ	-12.7765
�����׽���	-12.7767
�������	-12.7768
▁�����ͣ�	-12.7774
̤�����	-12.7778
▁ׯ	-12.7779
�߿	-12.7782
ħʮ	-12.7786
�̸��	-12.7787
�̸����	-12.7787
�ͬ�������	-12.779
▁���߽��	-12.7792
�ʿ�������	-12.7793
��޿���	-12.7793
��������	-12.7795
���̹���	-12.7798
�򣬽��	-12.7802
��߽���	-12.7806
����2�	-12.7809
▁���˹	-12.781
▁����˭�	-12.7817
▁���������˼����	-12.7821
������˼����	-12.7821
����˧��	-12.7832
�˲�ͬ�����	-12.7836
�����򿪿	-12.7842
⸡��	-12.7844
󿪣��	-12.7844
����˴��£�	-12.7849
������̫�����	-12.7852
��޲���	-12.7856
▁����������ˮ	-12.7857
���¡����	-12.7863
�������	-12.7866
��񣬽�	-12.787
޵���	-12.7877
▁�����1���	-12.7886
ࡣ�����	-12.7889
����ͨ�����	-12.7889
������⹫��	-12.7891
��󣬻���	-12.7891
���������£���	-12.7892
�ˮ������ˮ���	-12.7896
𱦣��	-12.7908
�����˱	-12.7911
���̨�	-12.7915
▁���޷�	-12.7918
��˽����˵���	-12.7924
��������·���	-12.7925
԰���	-12.7928
�򣡡�	-12.793
��󣬾	-12.7936
���̶	-12.795
���׵	-12.7952
�󵨣�	-12.7955
��˱�	-12.7964
�׽��	-12.7964
▁�������	-12.7966
��˭������	-12.7971
���¡����˽����	-12.7974
𴦣�����	-12.798
�򿪣���	-12.7982
▁���¶�	-12.7987
�¶������	-12.7994
����˽���˵	-12.8
�񣬸	-12.8006
���˳������	-12.801
�����ˮ�����	-12.8017
⨺	-12.8025
�����˼����	-12.8028
¿��	-12.803
���̴�	-12.8034
������	-12.8035
үԭ	-12.8036
�򣬳��	-12.8038
󲽣�����	-12.8042
̥�����	-12.8044
���ٰ�	-12.8045
▁׳	-12.8046
▁�������£���	-12.805
�¶��������	-12.8051
▁����˩	-12.8052
������׽�	-12.8054
ʹ���˼�	-12.8054
▁�����͹��	-12.8057
����	-12.8058
���˾�������	-12.8058
�������·���	-12.8062
��ˮ�	-12.8066
������	-12.8066
�����	-12.8071
���͸���	-12.8071
▁�����£�	-12.8075
����׹����	-12.8079
�£���˵���	-12.8086
���಻�	-12.8094
�������߿�	-12.81
׹��ˮ	-12.8102
���3⁄4��	-12.8102
�ʹ�𹿰���	-12.8104
�����������˽	-12.8124
��������	-12.8133
��̫����׹�������	-12.8133
������׽	-12.8139
���˵�����¥	-12.8141
��̾��	-12.8149
�񣿡����	-12.8151
�����˲�	-12.8155
���·�������	-12.8156
���׶	-12.816
������}��	-12.816
��˥��	-12.8162
�§�	-12.8162
��������˼��	-12.8165
▁�׶	-12.8171
����2	-12.8171
����������]�	-12.8174
���˯�������	-12.8175
�·���˼	-12.818
�޴����	-12.8181
�����޺��	-12.8198
������������׭�	-12.82
���������	-12.8202
��󽫾�	-12.8217
������޵�	-12.8218
▁����ͯ��������	-12.8227
˵˵���	-12.8228
˴˻��	-12.824
�⿤�������	-12.8245
�	-12.8248
޷��	-12.8262
_	-12.8266
��������ͣ��	-12.8266
▁˭	-12.8267
�������ˮ��	-12.8268
▁ͭ	-12.827
�⻹��	-12.8274
������̧�	-12.8274
����󾭵	-12.8284
˽�̧�	-12.8286
�������˲�	-12.8287
򡣡�����	-12.8293
�������ʼ�	-12.8304
▁�̣�����	-12.8305
�񣬾	-12.8307
⯣�	-12.8308
▁��������ˮ���	-12.8318
���˽�����������	-12.8321
���˩	-12.8322
���̵�����	-12.8324
���	-12.8325
▁�̷���	-12.8329
�����˩	-12.8332
▁����̫��	-12.8338
׵����	-12.8338
򲻹��	-12.834
����3⁄4�	-12.8345
��������⴦�	-12.8346
�������	-12.8352
��ʹ����ͨ��������	-12.8353
˱�	-12.8355
��»�����	-12.8364
���̰�	-12.8373
�񣬰	-12.8382
��󣬽��	-12.8383
󣬼��	-12.8384
̨�����	-12.8395
����ͣ������	-12.8396
�̿�	-12.84
▁�˼�	-12.8401
����ˮ�����	-12.8401
�������1⁄2�	-12.8402
��̫�׽�����	-12.8403
����޿	-12.8403
�����⹳�	-12.8405
��������	-12.8407
�󡣡����	-12.8409
����̻���	-12.8411
▁������������	-12.8414
�����˵�������	-12.8418
��˻������	-12.8418
����	-12.8419
������񣬻��������	-12.8423
�1��������	-12.8431
▁СС	-12.8433
޴��	-12.8439
˥����������	-12.8443
˶������	-12.8445
▁�𹿣��	-12.8445
򡣡��˽�	-12.8448
������˼���	-12.8451
ҹҹ	-12.8453
̥����	-12.8458
�	-12.8459
�󺣣�	-12.8473
▁�����£��	-12.8474
��������ˬ	-12.8477
͡��	-12.8479
▁ͯ��	-12.8486
ǵľ	-12.8487
�󣬿	-12.8498
��ࡣ������	-12.8501
���������߻��	-12.8503
±	-12.8506
���˺�«���	-12.851
��ͭ�	-12.8515
��������¡���	-12.8526
���������⯡���	-12.8529
�£��˽	-12.854
����	-12.8542
������	-12.8552
�¥̨��	-12.8553
���«����	-12.8553
˧���������	-12.8555
�򡣼������	-12.8557
������	-12.8559
▁�׶���	-12.8566
����޽	-12.857
▁��÷������	-12.8578
����޲	-12.8594
▁�𹿰�����	-12.8599
▁���޴��	-12.8602
ʹ̡���	-12.8602
�����������	-12.8603
�����˵��������	-12.8614
▁����΢����	-12.8616
▁�������	-12.8619
▁���̶������	-12.8619
�׹�����	-12.8627
▁�͸	-12.863
��ʻ��	-12.8631
▁����̫�	-12.8632
������	-12.8641
˵�����˽	-12.8649
ׯ�˼	-12.8655
▁����̽��	-12.8655
����񣬿	-12.8656
��ʹ����������	-12.866
�ͭ�	-12.8672
▁΢	-12.8674
߻���	-12.8679
Ǿȵ	-12.8679
�������̲�	-12.8684
����޸��	-12.8684
׽�����	-12.8685
▁��ͨ�����	-12.8689
▁�����	-12.8695
▁�޳���	-12.8695
ͤ������ͤ����	-12.8698
�������̧	-12.8698
������˱��ࡣ	-12.8702
����˾���	-12.8703
���޹�	-12.8703
಻	-12.8706
����󽫣��������	-12.8708
▁ͨ��	-12.871
񡣲	-12.8719
�񣡡�	-12.872
߼�����	-12.8722
�����·�����	-12.8723
▁���׵	-12.8724
�˽�ͤ���	-12.873
�￴�����	-12.8741
�󡣵�	-12.8757
���¡������	-12.8765
▁��׽�����	-12.8773
dzdz	-12.8776
����������	-12.8776
▁����׼���	-12.8782
���ࡣ�	-12.8783
��������ʹ���	-12.8785
�˱��£�	-12.8785
▁��������������ׯ	-12.8787
�򣬰��	-12.8788
��������	-12.8791
��򲻼���	-12.8794
���������°	-12.8797
1������	-12.88
�񣬰���	-12.8804
˵�޷�����	-12.8809
�˥��	-12.8811
�����󺣡���	-12.8813
�̶���	-12.8818
�﷢	-12.8827
��ׯ�����	-12.883
�򣡡��˽��	-12.8835
����	-12.8841
▁�������׵��	-12.8844
▁�಻���	-12.8844
��̧�����	-12.8846
𹿣��	-12.886
·;��	-12.8873
▁ȱ	-12.8878
��������	-12.8879
��˽��󾪵�������	-12.8886
���˼���1⁄2	-12.8886
ʺ��	-12.8888
�͡�����	-12.8889
�𻰣��������	-12.8892
�����ࡣ�����	-12.8903
������1⁄2	-12.8908
԰˽�˵�����	-12.8909
��࿴	-12.8933
��ˮ��������	-12.894
▁˯	-12.8944
��󣬽	-12.8953
����1���	-12.8961
���������̩���	-12.8971
��߼��	-12.8977
�󡣡�	-12.8979
��𾦻��	-12.898
󣬻�	-12.8984
��󣬾��	-12.8987
▁�߼	-12.8989
����������˾�	-12.8989
򣬻	-12.8992
񵽱�������	-12.8996
��޲����	-12.8998
�����ͣ���	-12.9005
�·����ˮ��	-12.9008
񡣡���	-12.9008
���3����	-12.901
���©�	-12.9011
����������	-12.9012
���1�	-12.9018
����������׺���	-12.9032
������̫�׽��	-12.9033
▁�ٰ	-12.904
��������ʹ�𹿰�����	-12.9047
���⿪	-12.9047
�����޸��	-12.9049
▁��˵�˽	-12.9053
���,��	-12.9054
���԰˽	-12.9065
▁����̸�	-12.9073
̥���	-12.9077
�󣬻���������	-12.9081
󡣡��˽����	-12.9084
���ˮ�	-12.9091
��£����˽�����	-12.9091
������������߽	-12.9091
��������1	-12.91
�������=�	-12.9104
󣬹��	-12.9104
�����������	-12.9108
▁�׶�	-12.9112
�»��	-12.9119
����ͯ��	-12.912
▁ͻ	-12.9122
����̫����	-12.9128
���˽	-12.9129
�������⥡�	-12.9132
▁�޿��	-12.9138
�������˸�	-12.9139
��˽����˵�����	-12.9145
���ʹͣ����	-12.9146
▁�����̻��	-12.9162
����񣬾�	-12.9171
�������	-12.918
���¥�£���������	-12.9189
��������޵�	-12.9195
̧�����͡����	-12.9196
▁�󾪵�����	-12.9199
▁�������������߾	-12.9199
▁��˯�	-12.92
⿪����	-12.9203
▁��������	-12.9211
÷����	-12.9213
▁̸	-12.922
����򣡡����	-12.9221
��׻	-12.9222
�̷�����	-12.9226
��񣻲	-12.9231
��˸������	-12.9232
΢���	-12.9234
���������ࡣ��	-12.9236
▁���˲�	-12.9237
���˵�����˶��	-12.9241
▁h	-12.9243
����ͨ������	-12.9248
�͢�������	-12.9253
˵�˽�����	-12.9257
ͬ�˽	-12.9267
▁��ͯ��	-12.9268
���󹬣��	-12.9274
�������˵�������	-12.9276
���ٰ����	-12.9281
����˽���˵�����	-12.9293
��԰˽��	-12.9293
����ͣ����	-12.9293
����˹�����	-12.9296
��������׵	-12.93
̤ˮ�	-12.9301
�����˽���˵��	-12.9314
���˸	-12.9317
�̱�	-12.932
̵	-12.9323
˵���߼	-12.9327
�񣬽����	-12.9338
�������˺�	-12.9342
�����󣬵�	-12.9342
▁��׼��	-12.9344
�󡣡��˽����	-12.9344
·�̡�	-12.9346
���������2�	-12.9347
��̥	-12.9355
▁���1⁄4����	-12.9355
����������˵���	-12.9359
󣬲��	-12.9363
�򡣲�	-12.9372
���·�̡�	-12.9377
▁��1	-12.9379
▁�̰˽	-12.9382
1⁄4�ׯ���	-12.9387
▁�����˱��	-12.9393
���������	-12.9395
▁����	-12.9403
▁��������	-12.9415
���[�	-12.9415
����𷨹�	-12.9417
������������	-12.9418
▁���˹�	-12.9424
���������������	-12.9429
����񣬺	-12.9431
𾦻��	-12.9439
▁�����߿	-12.9441
�	-12.9441
▁����׽	-12.9447
���2��	-12.9448
��󡣡����	-12.9451
ٰ�������	-12.946
▁�𹿰��	-12.947
��±�����	-12.9471
��������	-12.9471
���˥���	-12.9475
�¡��˽�	-12.948
▁̸��	-12.9481
׬���	-12.9482
�ʹͣ�����	-12.9483
▁�������޺	-12.9487
��࿴�	-12.9488
򣬿	-12.949
▁���߼������	-12.9492
▁�������͹�	-12.9495
�����׷�����	-12.9501
���𹿶���	-12.9503
�����̧	-12.9513
󾪣���	-12.9518
�߼	-12.9519
�����ׯ��	-12.9537
ͣ����ͣ����	-12.9546
𷢣�����	-12.9548
�����̱��	-12.9554
���¥����	-12.9564
񣡿��	-12.9565
�������	-12.9569
⯡�������	-12.9571
�˱�ˮ�	-12.9571
��������˭��˭�	-12.9573
�������̨�£�	-12.9577
▁́�������	-12.9586
Ʋȴ	-12.9598
�©��	-12.9599
˯�������	-12.9619
��໨���	-12.9624
�΢¶��	-12.9626
�򲻼��	-12.9636
▁�ʺ�	-12.9641
�����˭	-12.9641
�򣬰����	-12.9643
�����1��	-12.9644
��ͬ��ͬ�	-12.965
��ʿ�����	-12.9658
▁ͨ���	-12.9662
	-12.9676
΢¶��	-12.9681
▁�̰˽��	-12.9683
����������·	-12.969
�����߾	-12.9692
��׸���	-12.9706
���޼��	-12.9717
ɮȴ	-12.9724
��¶�����	-12.9724
�˧������	-12.9728
��𹿰�	-12.9734
▁�����������	-12.9735
�񣬼����	-12.9737
��׸�	-12.974
�������1⁄2	-12.9743
�������񣬿	-12.9743
»��������	-12.9743
����ٰ	-12.9747
׷���	-12.9747
3⁄4����	-12.975
1⁄2����	-12.9757
�£���������˵�	-12.9761
�񣬳���	-12.977
˭��˭�	-12.9777
�1⁄2�	-12.9778
��������↑���	-12.9778
��ʺ����	-12.978
�¥�����	-12.978
���̸������	-12.9782
°��	-12.9786
▁��ͤ��	-12.9789
󣬻�����	-12.9789
������÷	-12.979
�����	-12.9791
��̡�����	-12.9792
͡������	-12.9798
�����÷��	-12.9805
�򲻹��	-12.9807
˵���˻�	-12.9816
����񣬰	-12.9831
��������̣��	-12.9834
�������������	-12.9841
���񹦣�	-12.9842
�͢���	-12.9843
▁ˮ���������	-12.9846
��������	-12.9847
▁�������޷�	-12.9855
������˴�	-12.9855
󳤡�	-12.9859
ƶɮǰ	-12.986
��໨	-12.9864
�˯�����	-12.9869
�������޴	-12.9869
ʿ���������	-12.9876
�߾�	-12.9876
����1⁄2���	-12.9877
���˳����	-12.9878
���������	-12.9881
̷�˾���	-12.9887
��������ʿ	-12.9893
▁��������������	-12.9899
��񽫣��������	-12.9899
�򡣼��	-12.99
▁����˿�	-12.9901
����˱��ࡣ	-12.9905
������������	-12.991
▁�	-12.9911
���󣬰	-12.9914
�̷��	-12.9916
����������	-12.9917
▁����;�	-12.9918
ʹ̡�����	-12.9919
�����3	-12.9923
▁�𹿰���	-12.9923
��������ͨ	-12.9941
�����	-12.9949
��ٰ��	-12.9955
�����󵨣�	-12.996
ׯ�˼��	-12.9963
▁�̵���������	-12.9966
�໰����	-12.9971
▁�׷�	-12.9974
▁�˱	-12.9981
�᣿�	-12.9984
��_�����	-12.9986
▁�ʿ	-12.999
󾪵�������	-12.9992
����˽���˼	-12.9994
��԰˽����	-12.9994
��᲻����	-12.9996
��᲻��	-12.9998
���׽����	-13.0001
▁����ͣ�����	-13.0002
⻹��������	-13.0004
������ͣ	-13.0004
�޵׶��	-13.0013
׸�	-13.0015
̫������	-13.0017
񣬸���	-13.0018
����ࡣ��	-13.0028
�������޴��	-13.0039
▁���������3��	-13.0044
���˿����	-13.0047
▁�޹	-13.0051
▁԰�	-13.0053
��������˩�	-13.0054
▁���͹	-13.0057
����̶���	-13.007
�¡��˽�������	-13.0073
����¥�£��������	-13.0076
̻�	-13.008
�������ʹ	-13.008
����򣬱��	-13.0082
�������˴	-13.0083
▁�3	-13.0088
񲻰������	-13.0089
▁ʹ����	-13.0101
���˶����	-13.0108
▁Ӱ	-13.0111
�˽䷢�	-13.0118
���������1⁄2	-13.0124
������˭	-13.0127
▁��˵�˽���	-13.0131
�������ˮ����	-13.0136
▁�޿	-13.0142
�̻��	-13.0149
�������󺣣��	-13.0151
▁����	-13.0153
�˵���˴���	-13.0157
����⻹	-13.0158
�������߼��	-13.0162
򵹣�����	-13.0162
����˿����	-13.0162
��̾���������	-13.0165
▁̨�	-13.0169
�2����	-13.0172
��鿱�	-13.0183
��������ͨ�	-13.0191
�����󣬱�	-13.0192
���˭��	-13.0193
��׹��	-13.0193
�������ࡣ	-13.0196
������̾��	-13.0201
�޶�����	-13.0203
̣����˽	-13.0209
▁������������	-13.0209
�������˷�	-13.0213
����������˼	-13.0216
÷�����	-13.0218
���������˵�����	-13.0233
߼����	-13.0236
ͭ���	-13.0241
�������3�	-13.0241
▁�ʺ���	-13.0242
�˾�������	-13.0242
��˱��£�	-13.0243
������»�	-13.0247
▁������©�	-13.0258
���[��	-13.0259
�򡣡�	-13.026
▁���������𹿰���	-13.026
��𷨹�������	-13.0262
▁�¡���	-13.0263
���񡢰	-13.0265
��÷���	-13.0266
���󹬣�����������	-13.0267
��˾���	-13.0274
�˴˻��	-13.028
����߿��	-13.0282
���̷�����	-13.0283
�໹�	-13.0286
�����ͯ��	-13.0286
�	-13.029
£	-13.0295
��������˩�����	-13.0306
�����󣬽��������	-13.0309
����	-13.0311
��󾭡��	-13.0321
���1⁄2��	-13.0326
ɽǧ	-13.0328
������	-13.033
������������	-13.0337
�˥���	-13.0338
�����׹	-13.0342
�˾����������	-13.0349
���]��	-13.0352
�������̨	-13.0354
�̣����˽	-13.036
���׭	-13.0361
�����߻	-13.0362
�����˾	-13.0366
�������}��	-13.0369
��ʽ��	-13.0372
ͬ��	-13.0382
���޺�����	-13.0387
���1����	-13.0391
▁��ͤ�����	-13.0402
▁�߽����	-13.0402
▁�𹿣���	-13.041
����󽫣����������	-13.0412
���̨��	-13.0416
���������ˮ	-13.0418
ʹ˽����	-13.0423
�1����	-13.0429
��򣬱����������	-13.0432
���𹿰��	-13.0439
������̣��	-13.0441
���񣬺	-13.0447
��򣬳���	-13.0451
▁�������˴��	-13.0453
�����߼���˵���	-13.0455
▁��������˵���	-13.0462
�̱�������	-13.0463
��鿱��	-13.0463
�����⹫���	-13.0465
▁��·�����������	-13.0469
��������¶�	-13.0473
�̨��	-13.0478
������˯�������	-13.0481
�����ͮ��������	-13.0485
▁�˽���������	-13.0487
�����������↑	-13.0487
�������ͬ	-13.049
˵���߼��	-13.0495
Щӭ	-13.0499
���©	-13.0499
����˵���������	-13.0509
�󲽣������	-13.0516
�⿪���	-13.0522
����«�	-13.0523
▁�1⁄2����	-13.0525
��񣬵����	-13.0537
�����;	-13.0541
▁�����̣����	-13.0543
��޾�����	-13.0549
𾦣�����	-13.056
��̧��	-13.057
��1⁄4�ׯ������	-13.0576
�̫����׹��	-13.0592
��������˵�����	-13.0592
���˰˽	-13.0604
�׬	-13.0611
�̲�������	-13.0611
׺�����	-13.0613
��޺�������	-13.0615
�̸�����	-13.0616
��������	-13.0617
·���������£���	-13.0618
1⁄4��	-13.0619
���˵����˵	-13.0621
���������	-13.0625
������޸�ˮ��	-13.0626
̴������	-13.064
��ͣ������˵	-13.064
��3⁄4�	-13.0642
���	-13.0644
��ͤ������	-13.0644
▁������͸�	-13.0645
˰����	-13.0649
��,������	-13.0651
������񹦣��	-13.0654
򣬺�����	-13.0656
�����������3⁄4�	-13.0657
▁�˷	-13.0659
�������͹�	-13.0663
񣬶����	-13.068
����׼��	-13.0692
������˶�����	-13.0692
÷�������	-13.0697
▁��̥	-13.0699
��������ׯ����	-13.0707
˸	-13.0708
▁΢�	-13.0712
▁�޹��	-13.0713
����˰����	-13.0713
˴��¡������	-13.0716
��͸���	-13.0722
���ͤ����	-13.0736
·����·	-13.0745
�1⁄2������	-13.0749
��1����������	-13.075
▁��΢	-13.0752
��������	-13.0753
▁�3��	-13.0754
�����󣬾��	-13.0756
���ʿ��	-13.0763
���޺���	-13.0765
���������߼�˵	-13.0769
⸡���	-13.0772
󿪣���	-13.0772
���񣡿��	-13.0773
▁��ʹ������	-13.0776
���͡����	-13.0784
�����£�������	-13.0785
�����˰�	-13.0796
𵤣���	-13.0796
ͤ������	-13.0799
�ˮ���£�	-13.0802
�����������	-13.0811
����¡��	-13.0817
�����񣬿��	-13.0821
��޽����	-13.0822
߾��	-13.0822
▁�˱�	-13.0823
�������¶�	-13.0828
▁ͨ����	-13.0846
�����˽���˵����	-13.0847
▁����͸�	-13.0854
���׺��	-13.0855
�£�����������	-13.0874
����׶�	-13.088
���ࡣ������	-13.088
�������	-13.0881
������	-13.0885
�������£��������	-13.0894
���»���	-13.0903
ʼ�	-13.091
������	-13.0918
̤�	-13.0921
���������	-13.0925
��������̸��	-13.0927
޸�ˮ���¡���	-13.0931
▁ّٰ	-13.0933
˵�޷���	-13.0934
󣬾��	-13.0941
���򲻵�	-13.0953
��������¡��	-13.0969
�ˮ·��	-13.097
�⹳	-13.0972
�������˱�	-13.0977
▁���̶��������	-13.098
������£�����	-13.0982
޻	-13.0983
䷢	-13.0989
����	-13.0993
��¥�����	-13.0995
߸ߵ	-13.1004
�����˷��	-13.1005
▁ͭ�������	-13.1011
����������	-13.1014
��	-13.1014
�����	-13.1022
▁���3����	-13.1027
����𷨹���	-13.1048
��ͩ	-13.1051
⿪���	-13.1053
����£������	-13.1055
▁��ͨ��	-13.1061
󣬸����	-13.1061
��⵴����	-13.1068
�ٰ��	-13.1078
���������ˮ�	-13.108
��������˯�	-13.108
��¿	-13.1084
���˵�����˵	-13.1087
������·;	-13.1089
�������	-13.1097
���׷����	-13.11
��޹�����	-13.1106
�����̰����	-13.1109
�1⁄4�ׯ��	-13.1112
��·�̣�����	-13.1115
�����׷���	-13.1115
ˮ����������	-13.1116
󽫾������	-13.1118
▁1��	-13.1119
͡�����	-13.1124
�������˸��	-13.1125
����﻽�����	-13.1133
�򣿡�	-13.1133
�𵹣�	-13.1136
�ͬ�˽	-13.1138
��̶����	-13.114
�������°��	-13.1149
������˳�	-13.1155
°�	-13.1159
����˺	-13.1166
𷢣�������	-13.1167
▁�׷��	-13.1182
����¶����	-13.1183
��¥�£�	-13.1185
�����	-13.1186
���¥�����	-13.1188
˽�����������	-13.1189
­	-13.1189
▁�˿�	-13.1191
�������±	-13.1194
�_����	-13.1207
���¥̨���������	-13.1207
��̲��	-13.1216
�񣬰����	-13.1217
▁������԰�	-13.1218
�񡣡�����	-13.1221
�����͸�	-13.1224
򡣡����	-13.1224
����޼�	-13.1225
▁��˯��	-13.123
▁��˿���	-13.123
󣬴�����	-13.1236
�����׷�	-13.1238
���	-13.1247
���˯˯������	-13.1248
ȴȡ	-13.1252
��̨ͭ����	-13.1261
�����̵��	-13.1263
�����׼���	-13.1269
▁ͣ�����	-13.1272
�°��	-13.1281
▁Լ	-13.1287
˧��������	-13.1288
�����̫�׽��	-13.129
��¥̨�	-13.13
▁�����߽�	-13.1303
���÷������	-13.1303
�ʾ��	-13.1306
�����񽫣�	-13.1308
�޷����������	-13.131
������򻰣����	-13.1313
▁��������˿����	-13.1315
����˼���1⁄2	-13.1319
�󾪵�����	-13.132
˶�������	-13.1325
�˸������	-13.1341
������˸�	-13.1346
�ͤ������ͤ����	-13.135
▁���1⁄4	-13.1358
▁������ͬ�����	-13.1361
ꣿ����	-13.1363
▁����׼����	-13.137
����ˮ����ˮ����	-13.1382
ͮ���	-13.1384
˭�����	-13.1387
��󣬽����	-13.1395
����޸�ˮ����	-13.1396
���⹳	-13.1396
����¿��	-13.1398
���������׽	-13.1407
����˺�«����	-13.1418
�͡���	-13.1419
▁��������������¥	-13.142
����������	-13.1425
̹�»�	-13.1434
����̡�	-13.1438
·��	-13.1452
▁��ͣ�	-13.1457
�����ͨ	-13.1458
�����˶	-13.1462
���޸�	-13.1463
�̥��������	-13.1475
�ʹ����������	-13.1488
������ͩ	-13.149
������������	-13.1492
˹������	-13.1494
��«	-13.1496
▁���������̲�	-13.1498
����޽��	-13.1501
򣬼��	-13.1503
�����������£���	-13.1505
�󣬰�����	-13.1512
͹��	-13.1516
��򾻣�����������	-13.1517
�����	-13.152
▁��ʿ���	-13.152
˭�������	-13.1539
��������˲�	-13.1543
���￴����	-13.1544
��̻1	-13.1553
�񣡳���	-13.1558
▁����«�	-13.1565
��·ͨ�	-13.1567
▁��˭�	-13.1571
▁�˹��	-13.1575
һͣ	-13.1577
�¶�������	-13.1578
���������ʹ���	-13.1583
�������3��	-13.1587
̧����	-13.1588
���޾������	-13.1596
▁���������£���	-13.1598
���ʼ�	-13.16
򣿡����	-13.1606
�񡣴���	-13.1608
��޶�	-13.1608
▁����΢�����	-13.1609
▁���3	-13.161
▁�߼�	-13.1616
򶫣���	-13.1617
˼����׹�	-13.1628
��������޲�	-13.1636
▁������ʿ��	-13.1639
��������	-13.1643
��򽫳�	-13.1647
�����˭�	-13.1648
���޾���	-13.1652
�������	-13.1661
�����1⁄2��	-13.1663
������	-13.167
��󹬡�	-13.1689
������	-13.1689
�󵨣��	-13.1699
ǣţ	-13.1699
���޽����	-13.1701
̰�����	-13.171
▁԰��	-13.171
�����ˮ���	-13.1711
���󣬰�	-13.1712
�⿤����	-13.1722
�������񲻾��������	-13.1727
▁������©����	-13.1731
���2���	-13.1734
�;	-13.1735
��̴	-13.1745
�˻����	-13.1758
׹��	-13.1763
▁���̡�����	-13.1772
��˩����	-13.1774
̺����	-13.1774
�������ׯ�	-13.1777
̨	-13.1778
�������˭��	-13.1782
�����ˮ������	-13.1782
̲�̶	-13.1784
��1⁄4�ׯ�����	-13.179
��׵��������	-13.1792
������ˮ�����	-13.1803
����׼	-13.1804
������ˮ��ˮ�	-13.1811
▁�󾪵������	-13.1817
�¥̨����	-13.1818
▁̤�	-13.1822
���ͯ������	-13.1823
�������˯�	-13.1824
�󡣳	-13.1828
�󣬾���	-13.1832
▁�����	-13.1832
񣿡��˽���������	-13.1837
�޸������	-13.1851
�񣬺����������	-13.1854
▁�����߻�	-13.1857
������߻	-13.186
��̻����	-13.1865
��񣿡���	-13.1866
���������˱	-13.1874
�	-13.1875
�񣬰�����	-13.1879
��󣬰	-13.1885
�����	-13.1887
�̰˽������	-13.1894
񽫡���	-13.1894
▁˵����	-13.1898
�������������	-13.1898
��꨽�	-13.1919
�������£���˵���	-13.192
������������	-13.1923
���߽���	-13.1925
▁�1⁄4�������	-13.1927
��������׼	-13.1936
̲������	-13.1938
������޷�	-13.1943
߿�������	-13.1956
��������������񣬽	-13.1957
������	-13.1957
����·��·��	-13.1959
▁��΢������	-13.196
�������̳�	-13.1962
�˹�������	-13.1977
̹�	-13.1979
▁���	-13.1982
��鿱�����	-13.1985
��������͸	-13.1994
��̦޺����������	-13.1994
���˵˵����	-13.1996
�ʺ��	-13.2004
���԰����	-13.2008
▁��΢��	-13.2009
�̸���	-13.2027
�ͥ����	-13.2028
�����𹿰�����	-13.2029
�ʻ��	-13.2034
▁������¥����	-13.2036
�߽�����	-13.2038
̫��ͬ	-13.2044
�̾�ʿ	-13.2057
�̲	-13.2061
���̷�	-13.2063
��2	-13.2067
▁̨�����	-13.2067
�˽䷢��	-13.207
����1�����	-13.2071
�����޿��	-13.2074
���������̼��	-13.2075
񣬻�������	-13.2081
���ͭ�	-13.2082
��򡣰	-13.2083
׶	-13.2084
�����ͯ	-13.2087
▁������ͨ��	-13.2091
����������	-13.2092
������˱�	-13.2097
▁���˶����	-13.2104
▁̨��	-13.2109
�����	-13.2113
���������	-13.2114
�����ʿ˵��	-13.2114
������·��·�����	-13.2115
��˼�������	-13.2126
���񣬼���	-13.2129
�1⁄4�����������	-13.213
�򣬽����	-13.2133
��˭�����	-13.2137
▁������˭��	-13.2141
▁����˵���	-13.2142
�����͸	-13.2142
��������԰�	-13.2146
������������£�	-13.2149
�޾������	-13.2152
��·���˼	-13.2152
▁���������	-13.2153
͢�����	-13.2164
ʽ	-13.2167
�����޵���	-13.2175
�����޷�	-13.2179
��޹���	-13.2187
▁���̷���������	-13.2199
▁����ׯ�	-13.2208
▁����԰����������	-13.2229
�������˽��	-13.2229
�ͣͣ����	-13.2229
������˵��������	-13.2234
�������˽��������	-13.2239
����򣬻��	-13.2241
������ͣ��	-13.2243
▁�����̻���	-13.2244
��⿪�	-13.2259
�����޺����	-13.2261
���ʿ	-13.2263
▁�����͡���	-13.2284
���⿴	-13.2286
▁́�����������	-13.2288
���£�����·��	-13.2289
������;��	-13.2294
񣬰����	-13.2295
������˸��	-13.2296
�������޻	-13.2305
����¥���	-13.2312
▁������	-13.2314
����߿���	-13.232
��޼�����	-13.2323
▁�̲���	-13.2325
ɽƽ	-13.2325
�����񹦣�	-13.2328
��������򣬵	-13.2328
��޾	-13.2335
��񣬰	-13.2347
▁������¥��������	-13.2353
���ࡣ����	-13.2358
⿪������	-13.2359
�󣬱	-13.2362
��޵����	-13.2368
������£������	-13.2377
��߾	-13.2388
��������޵	-13.2392
�򣿡��	-13.2398
���1�����	-13.2399
����޴��	-13.2399
�򣬽�����	-13.24
▁�˳	-13.2411
▁�������͹��	-13.2413
����̸��	-13.2424
���1⁄2�����	-13.2428
������̡��	-13.243
▁��������ͯ���	-13.2438
�����⸮	-13.2439
���߻��	-13.2446
��̹��	-13.2447
����޻�	-13.2454
���󣬻�	-13.2457
�˵�����������	-13.2463
▁�����߻��	-13.2463
�񷬾��	-13.2464
����˴�·�	-13.2466
▁������	-13.247
������˻�	-13.2476
�˯�£�	-13.248
ͨ����ˮ���	-13.2494
޲���	-13.2496
�����˽��������	-13.2498
�����̫	-13.2503
�����̶�����	-13.2515
��������԰	-13.2533
����󹬣�	-13.254
�����޵�	-13.254
���˾���	-13.2542
�͹��	-13.2542
����ͮ������	-13.2546
���󣬷�	-13.2548
󣡿��	-13.2549
��������	-13.2558
������߾	-13.2559
�±��	-13.2565
�̡����	-13.257
�ٰ��������	-13.2571
˴�������	-13.2573
�˧����������	-13.2576
̷�˾��	-13.2576
�޼�	-13.2579
�����̾�	-13.2585
��񣬸��	-13.2585
�������¿�	-13.2587
��˽䷢�	-13.259
�׷������	-13.2594
▁�׶����	-13.2595
������̨������	-13.2604
��԰˽	-13.2604
�����1⁄4��	-13.2608
��������⿤��	-13.2624
����	-13.2626
���߿���	-13.2634
��������񣬾	-13.2645
�񡣡����	-13.2647
▁ͅ������	-13.2647
��1⁄2�������	-13.2647
˯�¡�����������	-13.2648
▁ͣ	-13.265
▁�׽�	-13.2659
�»���	-13.2673
▁�������޵�������	-13.2675
�����׽��	-13.2678
��1⁄4	-13.2681
▁�������ʹ�	-13.2683
��ׯ����	-13.2688
�˹������	-13.2689
���������	-13.2693
▁��˭���	-13.2694
����ׯ��	-13.2694
���񣡿	-13.2695
��������¡����	-13.27
����«����	-13.2704
▁����¥	-13.2733
▁����������˭�	-13.2738
���ʻ�	-13.2748
�������������	-13.2756
������	-13.2759
̾�������	-13.2762
�ʹ����ͨ���	-13.2765
���������ʹ	-13.2767
���˸�	-13.2771
���ʻ	-13.2775
ʽ�	-13.2778
΢¶	-13.2785
��������̾���	-13.2796
▁����׽����	-13.28
�޶��	-13.2803
��·;���	-13.2808
�ˮ·����	-13.2811
򽫳�	-13.2812
ࡢ	-13.2814
▁���������˴��	-13.2816
������«�����	-13.2827
᣻��	-13.2831
��׮�	-13.2833
԰����	-13.2833
▁԰�������	-13.2834
��������	-13.2835
��ʹ���̣���	-13.284
����ʿ������	-13.2841
���򣡡���	-13.2842
���󣬼	-13.2847
▁�������̲�	-13.2851
▁����׷	-13.2852
��������£�̧	-13.2854
���	-13.2862
▁������	-13.2865
๤�	-13.2866
▁�����2�����	-13.2868
ˮ1⁄2��	-13.2872
�޲����	-13.2876
����˷������	-13.2879
���˲�����	-13.288
��̫�����	-13.2882
��಻������	-13.2886
����׼�	-13.2888
▁����;��	-13.289
�1⁄2��	-13.2895
������޽�	-13.2899
˹�����	-13.29
��޳��	-13.2902
����̾�	-13.2917
����ʽ����	-13.2918
▁������̨�����	-13.292
�˼���������	-13.2926
�����ʺ�	-13.2946
𷢣�	-13.2947
���󣬸	-13.2951
▁����ˮ���	-13.2952
�񲻾�������	-13.2957
׮�������	-13.2969
����̫��ʹ	-13.2973
����������	-13.2985
ȵú	-13.299
����������	-13.2992
�¦�	-13.3
𻰣�	-13.3005
▁����͸��	-13.3005
�������,��	-13.3011
�˽�ʹ�	-13.3017
�߽̣�����	-13.3018
�������޹	-13.3024
�£�ʹ��	-13.3031
���ͥ�	-13.3032
▁�������˹�����	-13.3033
�̲��	-13.3038
鿴	-13.3051
���»�°�	-13.3052
׷�����	-13.3053
�����򣬱	-13.3057
�򣬸�	-13.3057
򿪿������	-13.3058
������÷�����	-13.3058
����͹	-13.306
���	-13.3065
�¶�����	-13.307
�����̳	-13.307
���̡��	-13.3073
���������̡�	-13.309
󣬾�����	-13.3093
�ͬ��������	-13.3093
▁���2���	-13.3094
����򻰣��	-13.3096
▁�˰�	-13.3099
▁�ʹ�	-13.31
▁�����������	-13.3101
¶���	-13.3101
▁��˭������	-13.3108
ͤ������ͤ��	-13.3108
���ͨ���󣬰�	-13.311
▁����	-13.3111
ʼ���	-13.3115
�˶�����������	-13.3122
������˰	-13.3131
▁������������	-13.3142
����̻��	-13.3146
��޴����	-13.3159
�����������⨺�	-13.3163
޲��	-13.3168
���ͭ����	-13.317
����̣������	-13.3172
������᲻�	-13.318
��������ˮ�����	-13.3181
����񲻾���	-13.3181
�����ʼ	-13.3187
����������˵�����	-13.3187
��˿������	-13.319
��⹫�	-13.3206
▁������ͨ���	-13.3206
��������෿	-13.3225
▁΢��	-13.323
������̵	-13.3235
���񡣡�	-13.3237
�������̵�	-13.324
�������	-13.3242
▁�����	-13.3249
▁�����2���������	-13.325
��������˾�	-13.3254
�����̤�	-13.3255
�򣬴��	-13.326
��⹫	-13.326
▁����������ˮ�	-13.3262
�����̣�����	-13.3263
Dzɽ	-13.3263
��������	-13.3267
��߼	-13.327
򣬶���	-13.327
���򵹣�����	-13.328
��񣬱�	-13.3283
�̤�������	-13.329
	-13.3292
ʥȥ	-13.33
���󡣡����	-13.33
����̩����	-13.3301
׹������	-13.3312
��˩�����	-13.3313
�������˹��	-13.3313
��˧	-13.3314
▁�����򡣡��	-13.3315
�÷������	-13.3315
▁·������	-13.3318
�����������˵	-13.3319
������·�����	-13.3328
���󣬺�	-13.3333
�������׾��	-13.3341
���˺�«�����	-13.3361
���󡣡��	-13.3363
������¬	-13.3364
▁�޴�	-13.3364
�鿱���	-13.3365
�̬	-13.3367
▁�޹���	-13.3371
▁ʿ�����������	-13.3375
�⻹	-13.3377
̳����������	-13.3378
������ʹ��	-13.3385
�����޺�	-13.339
򡣲�	-13.3394
��	-13.3398
˵�󻰣���	-13.3399
������	-13.3404
��޶��	-13.3405
����޵���	-13.341
𵤣�	-13.3421
▁��������	-13.3428
����𲿵	-13.343
����̻����	-13.3437
▁���˳	-13.3441
��↑�	-13.3444
▁����˭������	-13.3446
����_�	-13.3446
�ʼ���	-13.3446
���������߻�	-13.3449
���͸�	-13.3456
�˭�������	-13.3458
���΢	-13.3459
���������ͨ��	-13.346
�����񣿡���	-13.3461
▁���1⁄2��������	-13.3463
󾪣�����	-13.3464
�񣬻	-13.3465
���������޹�	-13.3468
�����������	-13.3468
▁ˮ����	-13.3469
�̱���������	-13.347
▁�͹��	-13.3474
������޸���	-13.3478
��򼦶���	-13.3485
˷�������	-13.3502
�,�����	-13.3503
���̫�׽���	-13.3505
▁���������	-13.3505
����·��·���	-13.3506
������̫����	-13.3511
���񣬶��	-13.3519
����߾����	-13.3524
���׹�������	-13.3528
�������1��	-13.3533
�����˹���	-13.3535
▁˾���	-13.3535
▁����̧	-13.3538
����׷�	-13.3547
�񽫣�	-13.355
,����	-13.3554
�������������	-13.3557
̱�	-13.3575
���·�̣������	-13.3577
��������������»	-13.3585
���󣬳�������	-13.3596
�»�����	-13.3597
▁���˰����	-13.3603
����񣬱���	-13.3607
���΢�	-13.3611
������޹�	-13.3613
�����ͬ�˽�	-13.3613
���˳·����	-13.3627
�������׭�	-13.3627
�󣬴����	-13.3628
��̨��̨�	-13.363
�������಻	-13.3634
��ʿ�·	-13.3639
▁����·	-13.365
�̨�����	-13.365
�⿴�	-13.365
󣬱��	-13.366
�����¶��	-13.366
̾��������	-13.3662
�޻��	-13.3662
򿪣�������	-13.3673
�������������	-13.3697
������˲����	-13.3722
������󵨵��	-13.3723
�������	-13.373
��÷����	-13.3739
�⿪�	-13.3745
�����������˵��	-13.3746
▁�͡��	-13.3746
�񣡿�	-13.3749
��¦	-13.375
�����򣬾	-13.3751
���򣬹�	-13.3751
˵���߼�����	-13.3768
������3���	-13.3771
��˽�����������	-13.3775
��̥����	-13.378
�����̳��	-13.3782
▁̨��������	-13.3783
�̲�̶�	-13.3787
ͤͤ����	-13.379
▁�����޵�	-13.381
�׶�����������	-13.381
�������˴�	-13.381
�����󺣳	-13.3811
���¡����߼��	-13.3814
������˵�����£��	-13.3828
▁�ٰ�	-13.3829
������񣬵�����	-13.3831
˵�޷������	-13.3832
���᣿����	-13.3834
�˵�󻰣�������	-13.3841
»����	-13.3845
���	-13.3845
��⯣���	-13.3846
��������·����	-13.3851
▁������׷	-13.3853
���������	-13.3854
򾻣�	-13.3859
̡�����	-13.386
����������򣬽�����	-13.3862
�˭��˭�������	-13.3863
���󣬶���	-13.388
�����£��������	-13.388
󿪶��	-13.3883
▁������·�����	-13.3888
��������˰˽	-13.3889
���������������	-13.3896
����©��	-13.3896
▁��˯���	-13.3903
�������͢����	-13.3905
�׬���	-13.3911
������ͯ��	-13.3913
�����񣬺��	-13.3913
�����������˴	-13.3932
���̨ͭ�������	-13.3933
�޽	-13.3934
󲻴��	-13.3935
▁԰���	-13.3935
᣻�����	-13.3937
�׶��	-13.3939
󣬳��	-13.3943
�඼�	-13.3948
�˷��̣�	-13.3949
��˱���	-13.3952
▁��ʹ�������	-13.3954
▁�������߽������	-13.3959
���ͬ�˽	-13.396
������	-13.3965
�񰰲	-13.3966
�����˲���	-13.397
ǵô	-13.397
�¥���	-13.3972
˽�ʹ�����	-13.3973
��˴�������	-13.3975
▁������	-13.3977
▁��¥�	-13.398
󡣡�����	-13.3987
���������׷��	-13.3988
������	-13.3988
���������ʺ���	-13.3993
ͷϸ	-13.3996
��������	-13.4
��˷�����	-13.4015
޸����	-13.4018
����˼�ׯ	-13.4021
��ͮ����������	-13.4021
���������˵������	-13.4027
��񣬻���	-13.403
ʹ˰	-13.4031
▁�����ٰ������	-13.4043
޲�	-13.4052
��	-13.4055
���������������	-13.4061
�����󣬵��	-13.4063
��	-13.4064
𹿡��	-13.4064
�������߼����	-13.4066
�����̣��	-13.4069
ɮͬ	-13.4073
������׷����	-13.4074
���˵�˰	-13.4078
˯�¡�����	-13.408
���˽𹿰���������	-13.4082
▁�˴�����	-13.4091
�޸����	-13.4097
▁�߻����	-13.41
������޵���	-13.4103
���������˼�	-13.4105
����׬������	-13.4105
˱����	-13.4106
��«�	-13.4107
�᣿�����	-13.4119
˸������	-13.4122
��򲻵�	-13.4123
��̵������	-13.4128
��޷�����	-13.4128
�����߼�˵����	-13.4132
▁��˿�������	-13.4133
���������¿��	-13.414
▁���2�	-13.4146
▁˽��	-13.4152
��������������	-13.4152
�������	-13.4155
󽫾���	-13.4158
�������˵	-13.416
���򾻣����	-13.4165
▁�𹿰�������������	-13.4166
��˩�	-13.4167
�������˶�	-13.4171
��ࡣ�����	-13.4174
�򣬶��	-13.4178
������	-13.4183
ͨһ	-13.4187
���������˸��	-13.4192
�������˳��·	-13.4198
�����˲�ͬ��	-13.4212
�����¥�����	-13.4218
�˷������	-13.4223
������˩	-13.4227
��3⁄4���	-13.4243
▁�������������	-13.4253
���£���˵�	-13.4255
��˽䷢�����	-13.4263
�������԰�	-13.4264
�����`��	-13.4268
�󻰡����	-13.4273
�����𴦣���	-13.4275
˧������	-13.4286
������������˵��	-13.4292
ᳪ�	-13.4297
▁���̡����	-13.43
▁��̤�	-13.43
��׬����	-13.4309
��׽���	-13.4326
𷢣��������	-13.4326
�����󣬲	-13.4327
����˽��������	-13.4328
̽������	-13.4341
��������˿�	-13.4341
񣬴��������	-13.4342
▁�˴���	-13.4343
������ʹ����ͨ��	-13.4345
��׬�	-13.4346
��˭��������	-13.4347
▁���˵�������	-13.435
̡����	-13.4352
���·;���	-13.4353
��޶���	-13.4353
������˺	-13.4356
׼����	-13.4357
����������	-13.4359
���������	-13.4361
��1⁄2����������	-13.4366
��	-13.4367
▁���������˽��	-13.4369
▁�������޵	-13.4381
���󣬰�����	-13.4383
���˧�	-13.4386
������	-13.4387
�󣬺�	-13.439
���ͮ���	-13.439
▁̩	-13.4397
�������￴����	-13.4405
����͸�����������	-13.4408
��޳�	-13.441
��������˭���	-13.4413
▁�̶������	-13.4422
�������»�	-13.4428
▁������ˮ	-13.4429
���������	-13.443
�������ͣ�����	-13.4449
��޵�����	-13.4455
▁�˶�����	-13.4455
���񣬼�	-13.4457
���˸��	-13.4458
���˷����	-13.447
�񣬶����������	-13.4489
��������̲�	-13.4492
��׾����	-13.4504
�ͣ����������	-13.451
�˺���	-13.4519
󻰣����	-13.4522
�̨�������	-13.4535
�£������ʹ���	-13.4545
▁����¥�	-13.4552
��������̦޺���	-13.4554
������	-13.4557
�׮��	-13.458
�����׹�	-13.4581
���������·	-13.4583
���˱������	-13.4592
�̦�	-13.4594
˽�����ˮ�	-13.4597
▁������˧��	-13.4606
��	-13.4609
����������᣻��	-13.4614
�̼����������	-13.462
�����򣬺��	-13.4624
���󣬶�����	-13.4626
�����������	-13.4635
���	-13.4635
�޷������	-13.464
��¥̨�����	-13.4642
򡣰	-13.4647
̣����˽��������	-13.4651
���÷����	-13.4655
޶�����	-13.4655
��˰˰��	-13.4668
󸹬�	-13.467
�;���������	-13.4674
ɦɦ	-13.4676
����������	-13.4683
▁����������ʿ�	-13.4687
�񽫣�������	-13.4689
�����񣬰�	-13.469
���̴����������	-13.4693
����̥��	-13.4697
��¥����	-13.4699
�����񣬲�	-13.4699
��޺���	-13.4706
��ʹʹ�������	-13.4714
̻�����	-13.4728
��񲻾���	-13.4747
���˵���������	-13.4758
˶	-13.4759
▁�����	-13.4763
�����񱣻���	-13.4767
��񣬲�	-13.478
�򲻳��	-13.4782
˹�����	-13.4783
�򴦣�������������	-13.4792
�򡣵����	-13.4812
̵��	-13.482
������÷�	-13.4829
������˽�������	-13.4831
�󿪶��	-13.4836
��������	-13.4844
�������̡���	-13.4848
��޸�	-13.4848
▁���̣�	-13.4851
���˵��ˮ	-13.4857
▁������ͣ	-13.4868
���󣬰��	-13.4883
��������	-13.4887
�̼��������������	-13.4901
߿���	-13.4903
��𵶱�����	-13.4911
��￴�����	-13.4912
▁������˵�������	-13.4915
�����������	-13.4916
�������̫��	-13.4919
��������߼�	-13.4921
▁¥��	-13.4926
�	-13.4932
˰˰�	-13.4933
���򣬽������	-13.4933
~��	-13.4936
�������׮	-13.494
▁���1�����������	-13.4946
��ʹ˴���	-13.4947
����ׯ����	-13.4948
ͣ��ͣ��	-13.4958
��ˮ��ˮ����	-13.4971
������ʺ���	-13.4973
▁ͤ�	-13.4974
��������¶��	-13.4976
񵽹	-13.4978
̡���	-13.4979
���̴��	-13.4985
▁�����˸�	-13.4986
°��������	-13.4987
����̼������	-13.499
▁������ˮ��	-13.4992
���񣡳���	-13.4993
ʼ�����	-13.5004
▁����ׯ��	-13.5004
▁������÷	-13.5017
���˼�ׯ	-13.5024
���������̤���	-13.5028
�󣬽	-13.5042
���������	-13.5042
򣡡��	-13.5042
�����޼���	-13.5045
��ͨ��������	-13.5048
▁��ͯ���	-13.5049
���᷿��	-13.505
������	-13.5052
��°���	-13.5056
��������⹫����	-13.5056
˯˯	-13.5063
���̥����	-13.5068
ʾ�������	-13.507
�����׮�	-13.5077
���˹���	-13.5079
��̨ͤ���	-13.508
�򣬿	-13.508
���������·���	-13.5081
ˮ1⁄2����	-13.5084
�����̰��	-13.5087
���˲���	-13.5087
ҧһ	-13.5104
������˽�˵�	-13.5111
▁������ͨ����	-13.5113
▁���˸���	-13.5115
▁�������ͣ��	-13.5118
��������޾���	-13.5122
�������·������	-13.5122
▁˼��	-13.5125
▁��������˵��	-13.5127
׾���	-13.5131
��˾�˵�	-13.5139
�������˺	-13.514
΢΢	-13.5143
����񣬱������	-13.5145
���˾��������	-13.5148
����׵��	-13.5149
�����׺�	-13.5149
���򣡡��˽�	-13.515
󽫣��������	-13.515
▁�¡�����	-13.5161
▁ͬ�������	-13.5184
�ͯ�����	-13.5194
▁���˶������	-13.5195
�����˧	-13.5198
���񣬰	-13.5203
£���������	-13.5204
▁�������˻�	-13.5205
����������󡣡�	-13.521
▁������˭���	-13.5215
�̰˽�	-13.5219
�񣬸�����	-13.5219
�������̷��	-13.5224
�̦޺���	-13.5227
▁����˳������	-13.5229
�·�̶	-13.5232
̶������	-13.5236
▁�����	-13.5241
▁��ͨ��������	-13.5243
�׮	-13.5243
���˴�����	-13.5246
⻹	-13.5248
�󰡣�����	-13.5271
�¿��	-13.5288
ͣ���������	-13.529
����׽����	-13.529
���⿴��	-13.5291
����񾪣�����	-13.5296
▁˭���������	-13.5298
�����׼	-13.5303
�����̶	-13.5304
���˰����	-13.5305
��������񣬰��	-13.5309
▁˧�	-13.5322
��������	-13.5324
ʹ��ͨ������	-13.5324
˽䷢	-13.5328
▁�������������˷	-13.5328
��䷿�	-13.5341
ا	-13.5342
ئ	-13.5343
�����������	-13.5343
඾	-13.5344
ⰲ	-13.5344
俳	-13.5344
巿	-13.5344
궼	-13.5344
ť	-13.5344
̛	-13.5344
֓	-13.5344
ک	-13.5344
ݖ	-13.5344
ử	-13.5344
Ἰ	-13.5344
ὣ	-13.5344
⶿	-13.5344
ⷢ	-13.5344
㲽	-13.5344
䱩	-13.5344
佥	-13.5344
庺	-13.5344
矛	-13.5344
篡	-13.5344
缤	-13.5344
躬	-13.5344
軶	-13.5344
鵱	-13.5344
鸶	-13.5344
鼡	-13.5344
鿼	-13.5344
뵴	-13.5344
@	-13.5344
R	-13.5344
f	-13.5344
ł	-13.5344
Ɓ	-13.5344
ǩ	-13.5344
ʂ	-13.5344
ʛ	-13.5344
̯	-13.5344
͙	-13.5344
ђ	-13.5344
҇	-13.5344
ը	-13.5344
౸	-13.5344
ಽ	-13.5344
೹	-13.5344
ണ	-13.5344
ഩ	-13.5344
വ	-13.5344
ഺ	-13.5344
ൣ	-13.5344
ൺ	-13.5344
ඡ	-13.5344
໽	-13.5344
࿮	-13.5344
ᔪ	-13.5344
ᯣ	-13.5344
ᰡ	-13.5344
ᰮ	-13.5344
ᱯ	-13.5344
Ს	-13.5344
Ჲ	-13.5344
᳤	-13.5344
ᷨ	-13.5344
Ṭ	-13.5344
ἰ	-13.5344
ἴ	-13.5344
Ὥ	-13.5344
⯸	-13.5344
ⱸ	-13.5344
ⲡ	-13.5344
ⲿ	-13.5344
ⴥ	-13.5344
ⴱ	-13.5344
ⵤ	-13.5344
⵻	-13.5344
ⷴ	-13.5344
⸱	-13.5344
⸴	-13.5344
⸾	-13.5344
⹷	-13.5344
㒥	-13.5344
㱥	-13.5344
㱸	-13.5344
㵾	-13.5344
㹲	-13.5344
㼫	-13.5344
㾰	-13.5344
㾾	-13.5344
㿫	-13.5344
㿽	-13.5344
䰾	-13.5344
䱣	-13.5344
䴫	-13.5344
䴭	-13.5344
䴷	-13.5344
䶤	-13.5344
䶷	-13.5344
䷥	-13.5344
䷳	-13.5344
丹	-13.5344
京	-13.5344
孲	-13.5344
尬	-13.5344
屭	-13.5344
岭	-13.5344
峿	-13.5344
巾	-13.5344
弪	-13.5344
弴	-13.5344
役	-13.5344
徲	-13.5344
淢	-13.5344
淸	-13.5344
淿	-13.5344
渰	-13.5344
溬	-13.5344
滣	-13.5344
潡	-13.5344
潥	-13.5344
潶	-13.5344
澮	-13.5344
澶	-13.5344
澼	-13.5344
澽	-13.5344
磺	-13.5344
簵	-13.5344
籣	-13.5344
籼	-13.5344
糣	-13.5344
緭	-13.5344
縵	-13.5344
缲	-13.5344
翸	-13.5344
蘼	-13.5344
裼	-13.5344
覣	-13.5344
蹩	-13.5344
軰	-13.5344
輸	-13.5344
顶	-13.5344
骨	-13.5344
鬯	-13.5344
鰢	-13.5344
鳲	-13.5344
鴧	-13.5344
鴸	-13.5344
鵥	-13.5344
鶹	-13.5344
黡	-13.5344
黨	-13.5344
黯	-13.5344
鼮	-13.5344
걣	-13.5344
걨	-13.5344
겵	-13.5344
곣	-13.5344
괺	-13.5344
그	-13.5344
긴	-13.5344
껳	-13.5344
롪	-13.5344
멡	-13.5344
봩	-13.5344
뷺	-13.5344
뺢	-13.5344
d	-13.5344
Ɗ	-13.5344
̈	-13.5344
ᦲ	-13.5344
Ⲳ	-13.5344
䵯	-13.5344
彿	-13.5344
洬	-13.5344
辿	-13.5344
鴻	-13.5344
鷲	-13.5344
鼳	-13.5344
껱	-13.5344
봲	-13.5344
ڬ	-13.5344
��򶫱��	-13.5344
!	-13.5344
"	-13.5344
#	-13.5344
*	-13.5344
\	-13.5344
|	-13.5344
	-13.5344
ê	-13.5344
ē	-13.5344
ń	-13.5344
Ɲ	-13.5344
Ƀ	-13.5344
ʑ	-13.5344
ʕ	-13.5344
ʝ	-13.5344
˄	-13.5344
͒	-13.5344
Ό	-13.5344
ѕ	-13.5344
ѫ	-13.5344
ґ	-13.5344
Ғ	-13.5344
Ӓ	-13.5344
ӓ	-13.5344
ԍ	-13.5344
դ	-13.5344
ց	-13.5344
֠	-13.5344
֢	-13.5344
פ	-13.5344
ُ	-13.5344
٭	-13.5344
ڪ	-13.5344
ی	-13.5344
܀	-13.5344
ݫ	-13.5344
ބ	-13.5344
ާ	-13.5344
ޯ	-13.5344
ߓ	-13.5344
ߜ	-13.5344
ষ	-13.5344
੡	-13.5344
ా	-13.5344
ౡ	-13.5344
౳	-13.5344
ಢ	-13.5344
ನ	-13.5344
೾	-13.5344
ഹ	-13.5344
൹	-13.5344
ද	-13.5344
෼	-13.5344
ษ	-13.5344
๥	-13.5344
๦	-13.5344
๴	-13.5344
໳	-13.5344
໻	-13.5344
཭	-13.5344
ཱ	-13.5344
ུ	-13.5344
ྪ	-13.5344
ྴ	-13.5344
྾	-13.5344
࿰	-13.5344
ᘆ	-13.5344
ᡡ	-13.5344
ᦰ	-13.5344
ᦸ	-13.5344
᫾	-13.5344
ᰤ	-13.5344
ᰴ	-13.5344
Ჽ	-13.5344
᳹	-13.5344
ᴦ	-13.5344
ᵷ	-13.5344
ᶅ	-13.5344
ṩ	-13.5344
ỹ	-13.5344
ỻ	-13.5344
Ἣ	-13.5344
ὡ	-13.5344
ᾡ	-13.5344
ᾭ	-13.5344
Ὸ	-13.5344
῿	-13.5344
⡯	-13.5344
⥾	-13.5344
⫣	-13.5344
Ⱑ	-13.5344
ⱡ	-13.5344
Ɑ	-13.5344
ⱳ	-13.5344
Ⲩ	-13.5344
⳥	-13.5344
⳯	-13.5344
⳹	-13.5344
ⴷ	-13.5344
ⴺ	-13.5344
⵽	-13.5344
ⶳ	-13.5344
ⶹ	-13.5344
ⷺ	-13.5344
⸿	-13.5344
⹩	-13.5344
⹬	-13.5344
⺭	-13.5344
⻼	-13.5344
⿳	-13.5344
イ	-13.5344
ケ	-13.5344
㰤	-13.5344
㲣	-13.5344
㳧	-13.5344
㳪	-13.5344
㴭	-13.5344
㴳	-13.5344
㵨	-13.5344
㵸	-13.5344
㶡	-13.5344
㷡	-13.5344
㷢	-13.5344
㷳	-13.5344
㷵	-13.5344
㷹	-13.5344
㸰	-13.5344
㺣	-13.5344
㺰	-13.5344
㺱	-13.5344
㻬	-13.5344
㻳	-13.5344
㻵	-13.5344
㾶	-13.5344
㿡	-13.5344
䡰	-13.5344
䫿	-13.5344
䰫	-13.5344
䰲	-13.5344
䱾	-13.5344
䲢	-13.5344
䳣	-13.5344
䵲	-13.5344
䶫	-13.5344
串	-13.5344
临	-13.5344
丵	-13.5344
丿	-13.5344
乬	-13.5344
乲	-13.5344
亻	-13.5344
仢	-13.5344
仳	-13.5344
价	-13.5344
伸	-13.5344
佲	-13.5344
侫	-13.5344
侲	-13.5344
侺	-13.5344
俰	-13.5344
売	-13.5344
壺	-13.5344
媡	-13.5344
尺	-13.5344
層	-13.5344
岨	-13.5344
岼	-13.5344
岽	-13.5344
峣	-13.5344
崣	-13.5344
嵹	-13.5344
嵽	-13.5344
嶤	-13.5344
嶪	-13.5344
嶵	-13.5344
巡	-13.5344
己	-13.5344
常	-13.5344
广	-13.5344
廢	-13.5344
廰	-13.5344
廹	-13.5344
廽	-13.5344
弤	-13.5344
弱	-13.5344
彣	-13.5344
御	-13.5344
循	-13.5344
徱	-13.5344
桪	-13.5344
檴	-13.5344
氰	-13.5344
氾	-13.5344
汮	-13.5344
汯	-13.5344
没	-13.5344
洣	-13.5344
洱	-13.5344
浸	-13.5344
涷	-13.5344
渴	-13.5344
湦	-13.5344
湩	-13.5344
溮	-13.5344
溴	-13.5344
滯	-13.5344
滶	-13.5344
澲	-13.5344
澵	-13.5344
田	-13.5344
硯	-13.5344
竹	-13.5344
簴	-13.5344
籬	-13.5344
籸	-13.5344
粢	-13.5344
粣	-13.5344
粥	-13.5344
粴	-13.5344
粹	-13.5344
糦	-13.5344
糶	-13.5344
糾	-13.5344
糿	-13.5344
紥	-13.5344
紦	-13.5344
紫	-13.5344
綥	-13.5344
綬	-13.5344
綵	-13.5344
綾	-13.5344
縴	-13.5344
縸	-13.5344
繧	-13.5344
繬	-13.5344
纥	-13.5344
纳	-13.5344
绣	-13.5344
绷	-13.5344
缸	-13.5344
罰	-13.5344
羡	-13.5344
羲	-13.5344
羴	-13.5344
羽	-13.5344
翴	-13.5344
衱	-13.5344
觻	-13.5344
谮	-13.5344
谴	-13.5344
質	-13.5344
账	-13.5344
贺	-13.5344
赶	-13.5344
赹	-13.5344
跻	-13.5344
跽	-13.5344
軧	-13.5344
軹	-13.5344
輡	-13.5344
輴	-13.5344
载	-13.5344
酉	-13.5344
顮	-13.5344
飛	-13.5344
馸	-13.5344
鰡	-13.5344
鱪	-13.5344
鲣	-13.5344
鲧	-13.5344
鴰	-13.5344
鵲	-13.5344
鷱	-13.5344
鷹	-13.5344
鸹	-13.5344
鹦	-13.5344
黭	-13.5344
鼫	-13.5344
鼴	-13.5344
齧	-13.5344
齭	-13.5344
齰	-13.5344
齷	-13.5344
龻	-13.5344
ꡪ	-13.5344
ꨡ	-13.5344
ꪻ	-13.5344
걬	-13.5344
걯	-13.5344
겢	-13.5344
곯	-13.5344
괩	-13.5344
궯	-13.5344
귢	-13.5344
귨	-13.5344
깩	-13.5344
껪	-13.5344
꼦	-13.5344
꽲	-13.5344
꾻	-13.5344
꿰	-13.5344
꿺	-13.5344
롱	-13.5344
면	-13.5344
밤	-13.5344
밴	-13.5344
밵	-13.5344
벡	-13.5344
벧	-13.5344
벼	-13.5344
볡	-13.5344
볱	-13.5344
봵	-13.5344
붤	-13.5344
붰	-13.5344
붵	-13.5344
뷣	-13.5344
븡	-13.5344
븰	-13.5344
빤	-13.5344
빦	-13.5344
빯	-13.5344
빲	-13.5344
빳	-13.5344
뺬	-13.5344
뺮	-13.5344
뺶	-13.5344
᷺	-13.5344
ɗ	-13.5344
˅	-13.5344
̊	-13.5344
Ѧ	-13.5344
ҍ	-13.5344
Ө	-13.5344
ૣ	-13.5344
౾	-13.5344
๣	-13.5344
ຮ	-13.5344
᳣	-13.5344
⹴	-13.5344
㺬	-13.5344
峡	-13.5344
嶥	-13.5344
彭	-13.5344
涴	-13.5344
滤	-13.5344
綦	-13.5344
綯	-13.5344
緲	-13.5344
賣	-13.5344
蹬	-13.5344
뺴	-13.5344
׽����׽����׽����	-13.5344
==	-13.5344
%	-13.5344
]��������	-13.5344
	-13.5344
Ć	-13.5344
ś	-13.5344
Ţ	-13.5344
Ʀ	-13.5344
ǖ	-13.5344
ʋ	-13.5344
Ψ	-13.5344
В	-13.5344
ڑ	-13.5344
ڠ	-13.5344
ڨ	-13.5344
ߒ	-13.5344
൥	-13.5344
൳	-13.5344
൷	-13.5344
ศ	-13.5344
๷	-13.5344
໪	-13.5344
༵	-13.5344
ᆪ	-13.5344
ᆳ	-13.5344
᫡	-13.5344
ᴧ	-13.5344
ᷡ	-13.5344
ḹ	-13.5344
Ứ	-13.5344
⥣	-13.5344
⩺	-13.5344
⯰	-13.5344
⯳	-13.5344
⯺	-13.5344
Ⱚ	-13.5344
Ⱪ	-13.5344
Ȿ	-13.5344
⵪	-13.5344
⵭	-13.5344
⺺	-13.5344
⿺	-13.5344
〕	-13.5344
ャ	-13.5344
㣵	-13.5344
㰮	-13.5344
㱳	-13.5344
㴵	-13.5344
㴹	-13.5344
㶤	-13.5344
㷭	-13.5344
㷺	-13.5344
㸴	-13.5344
㹬	-13.5344
㺲	-13.5344
㺺	-13.5344
㼲	-13.5344
䰮	-13.5344
䳭	-13.5344
䴲	-13.5344
为	-13.5344
乭	-13.5344
亦	-13.5344
伦	-13.5344
佻	-13.5344
使	-13.5344
侶	-13.5344
信	-13.5344
尴	-13.5344
屻	-13.5344
岮	-13.5344
崿	-13.5344
嶣	-13.5344
嶴	-13.5344
師	-13.5344
彵	-13.5344
桱	-13.5344
槼	-13.5344
檺	-13.5344
欣	-13.5344
氧	-13.5344
氲	-13.5344
浶	-13.5344
渣	-13.5344
游	-13.5344
湬	-13.5344
湰	-13.5344
溣	-13.5344
溱	-13.5344
潭	-13.5344
潵	-13.5344
澳	-13.5344
濥	-13.5344
紩	-13.5344
綪	-13.5344
绢	-13.5344
缦	-13.5344
缯	-13.5344
羦	-13.5344
羫	-13.5344
羶	-13.5344
袡	-13.5344
裻	-13.5344
谣	-13.5344
赡	-13.5344
跳	-13.5344
躺	-13.5344
輰	-13.5344
魡	-13.5344
鮡	-13.5344
鱩	-13.5344
鱱	-13.5344
鱸	-13.5344
鲸	-13.5344
鴦	-13.5344
鵣	-13.5344
鵹	-13.5344
鷺	-13.5344
鹲	-13.5344
黳	-13.5344
鼱	-13.5344
齦	-13.5344
꨻	-13.5344
ꪷ	-13.5344
걭	-13.5344
공	-13.5344
괹	-13.5344
꺮	-13.5344
껣	-13.5344
껯	-13.5344
롰	-13.5344
밲	-13.5344
뱱	-13.5344
뺽	-13.5344
˓	-13.5344
౼	-13.5344
າ	-13.5344
᣺	-13.5344
—	-13.5344
㵷	-13.5344
亣	-13.5344
峹	-13.5344
廧	-13.5344
彷	-13.5344
沼	-13.5344
紲	-13.5344
繦	-13.5344
覴	-13.5344
骣	-13.5344
鱣	-13.5344
鲭	-13.5344
鹫	-13.5344
龣	-13.5344
ꪲ	-13.5344
꽹	-13.5344
ן	-13.5344
潿	-13.5344
鹩	-13.5344
����.	-13.5344
ʹ����ʹ����ʹ����	-13.5345
مح	-13.5346
������̣�	-13.5347
���,���	-13.5355
޽�������������	-13.5362
��˵������������	-13.5367
���������԰�	-13.5367
▁�޸�ˮ���	-13.5372
򣬿�����	-13.5373
�������￴���	-13.5376
̲�̶����	-13.5378
�����¥����	-13.5389
�ͣ������ͣ�	-13.5392
�»�1	-13.5393
����������£���	-13.5397
�̶	-13.542
��������	-13.5429
▁�÷���	-13.5429
������˵˵���	-13.5437
▁��ͭ�	-13.5439
�򣬲��	-13.544
▁׽�	-13.544
�޶������	-13.5441
���˷�	-13.5444
̳�����	-13.5449
��	-13.5452
�����ͨ����	-13.5456
���᲻���	-13.5463
��̬���	-13.5466
��̰���	-13.5471
����˰�	-13.5494
����׸��	-13.5498
���������£���	-13.5504
�����󿪶��	-13.5519
���˽䷢��	-13.554
�����������£�	-13.5542
▁���߼�����	-13.5549
▁��˼��������	-13.5551
�������˯����	-13.5551
▁̄�����������	-13.5558
▁����׽�	-13.5565
▁����ʿ	-13.5567
������ͨ����	-13.5572
�¿	-13.5573
������ͯ	-13.5579
�¬�	-13.5583
����಻�����������	-13.559
����˽���˵������	-13.5598
⹫���	-13.5604
�����˰��	-13.5605
��˳������	-13.561
��������ͨ��	-13.5611
������̴	-13.5615
���߼����	-13.5617
����񣬽�������	-13.5638
�����������ʻ�	-13.5639
��̬��	-13.5645
����̶��	-13.5647
ʿ�·����	-13.5657
�򣬿�����	-13.5662
�󣬱���	-13.5662
��������̣������	-13.5675
▁���������˽�	-13.5677
�������޹��	-13.5692
̨Ӱ	-13.5697
▁���̼	-13.5704
·�̶	-13.5707
̢����	-13.5709
▁˽�����	-13.5722
�񵽹	-13.5722
���~�	-13.5734
▁ʿ�������	-13.5734
񰰣���	-13.5741
���̨���	-13.5742
▁��������ͬ	-13.5744
�������ͣ	-13.5745
�����΢	-13.5747
�ࡣ�����	-13.5748
ľɭ	-13.5771
1⁄2�	-13.5781
ʹ�����������	-13.5782
▁���������˴���	-13.5782
���⿪�������	-13.5783
�񣬻�������	-13.5793
�𵶱�����	-13.5795
���������	-13.5804
��������ʹ	-13.5815
1⁄2�������	-13.5818
�ͬ��ͬ����	-13.5818
▁�˸�	-13.5845
�������������̧�	-13.5846
��,����	-13.5847
3������	-13.5848
��¬�	-13.5849
��̻�����	-13.5854
▁���¡����	-13.5854
�����˽���˵�����	-13.586
▁����̫	-13.588
▁���߻��	-13.5885
��·�����������	-13.5891
���ͤ	-13.5897
�߽��	-13.5909
����������ˮ	-13.5915
̽�����	-13.5916
▁���˽���������	-13.5918
�˽����˵��������	-13.5919
▁����������¥�	-13.5921
�1⁄4��	-13.5929
������ͣͣ��	-13.5934
����׼����	-13.5936
�����˱���	-13.5949
����񡣡���	-13.5966
����	-13.5968
▁�������˱���	-13.5977
˰����	-13.5982
������󡣡�����	-13.5983
�����ࡣ��	-13.5991
▁��˼������������	-13.5993
�̲�����ʹ�����	-13.6002
������˿	-13.6005
▁�˼���	-13.6007
▁�����¶	-13.6011
�������΢�����	-13.6016
▁˯��������������	-13.6024
���������	-13.6036
��	-13.6037
����˭����	-13.6037
��͹����	-13.6043
▁���������°	-13.6047
��̦���	-13.605
���̩������	-13.6055
������⻹	-13.6056
񣿡�����	-13.6058
��������򻰣����	-13.6065
�������	-13.6069
޿��	-13.6073
���������·��	-13.6086
���鿱������	-13.6089
�������	-13.609
▁������ͣ������	-13.609
�򣬲���	-13.6111
▁����������	-13.6117
▁�������	-13.6127
̨���	-13.6129
▁����������ͯ��	-13.6148
޵׶�����	-13.6157
��߼���	-13.6162
�����������ͨ�	-13.6175
�������������￴	-13.6178
�ʾ	-13.618
���������·	-13.6196
�໨�����	-13.62
▁�޴��	-13.621
��޷������	-13.621
����޲��	-13.6218
▁������������	-13.6219
�������˯��	-13.6231
▁ˮ�����	-13.6231
˷������	-13.6232
̽���	-13.6233
������	-13.6238
����������	-13.624
˳�����	-13.624
��̸������	-13.6246
𹿣���	-13.6248
��������˯��	-13.6267
▁����԰��	-13.6271
��1⁄2�����	-13.6284
������ͭ	-13.6287
��̴��	-13.6295
˰������	-13.6295
�𹿣������	-13.6299
�������񣬼�	-13.63
▁��������·�����	-13.6307
��󾪣�	-13.6324
����������£�	-13.6327
˽������	-13.6329
▁����������˼���	-13.6338
���̳����������	-13.6339
▁́����	-13.6344
�򿪿�	-13.6361
�����·�������	-13.6361
�����,	-13.6376
��;	-13.6386
▁����˳��	-13.6398
򣬱�	-13.6408
�2���	-13.6408
�����ͬ�����	-13.6412
������򣬽�	-13.642
�ͣ��ͣ��	-13.642
����˽�������˵	-13.6431
▁�����˳����	-13.6433
�������˹�	-13.6437
�������·����	-13.6446
������߻���	-13.6471
▁�̵�	-13.6486
���ͯ����	-13.6488
�͡����������	-13.649
��͢��	-13.6491
󾪣�	-13.6497
▁��¥���	-13.6497
����׽������	-13.6501
𱦣���	-13.6503
����͡���	-13.6505
����᲻�	-13.6518
��󿪶��	-13.6522
��᲻�	-13.6523
��£����˽�	-13.6524
��󻰡����	-13.6528
▁�������2�	-13.6542
˺����	-13.6546
˵���������	-13.6555
�����׿���	-13.6566
̫����������	-13.657
���������	-13.6574
��	-13.6577
���	-13.6581
▁ͬ���	-13.6585
˽������������	-13.6592
̲�����ʹ�����	-13.6592
޷�������	-13.6596
�⹫�	-13.6598
񽫣�	-13.6606
�˲������	-13.661
���˴�·����	-13.6612
��������˼�	-13.6612
���������¥	-13.6613
�������	-13.6623
�߾������	-13.6627
�������񣬸������	-13.6629
͹�����	-13.664
����̵�������	-13.6646
�	-13.6651
������˳	-13.6652
��޶����	-13.6655
�򵹣�����	-13.6659
�׾�������	-13.6664
�˻�������	-13.6667
������1⁄4�ׯ����	-13.6678
�˵˵���������	-13.6686
���ࡣ�����	-13.669
�����򣬶�	-13.6696
▁�͡������	-13.6705
򣬴���	-13.6706
▁��ͯ�����	-13.6711
����޼	-13.6712
������󹬣�	-13.6721
�������������	-13.6722
�ʹʹ�������	-13.6731
▁΢���	-13.6735
˵����̫�	-13.6737
�������ͣ��	-13.6741
�̥������	-13.6749
������󣬽���	-13.6751
����߽��	-13.6764
��΢¶��	-13.6773
����	-13.6773
̨��̨���	-13.6775
��򣬵��	-13.6781
������̧	-13.6782
��������޾	-13.6786
��������ˮ��ˮ�	-13.6787
��޺�	-13.6807
������׼������	-13.6808
�����������	-13.6811
ʿ����	-13.6813
���	-13.6816
��¶��������	-13.6818
˼���������	-13.6818
��˭����	-13.6824
�޸�ˮ������	-13.6824
������޴�	-13.6826
˽����˵��������	-13.6827
�󣬲������	-13.6837
��޼����	-13.6841
����°˽	-13.6847
���޲�	-13.6861
������������	-13.6867
�_������	-13.6878
๤�����	-13.6896
����	-13.6898
▁�����޹	-13.69
�������˭������	-13.6901
������޴���	-13.6902
������˱�����	-13.6904
����΢���	-13.6905
�����߾��	-13.6913
��಻�����	-13.6913
񰰲	-13.6914
�������˵��������	-13.6918
�����ͬ����	-13.6935
▁�������˶	-13.694
��ʹ���������	-13.6941
�����󣬿�	-13.6945
���̫����	-13.6945
▁�𹿰������	-13.6948
▁���������	-13.6948
����ʹ�������	-13.6954
���˱���	-13.6959
▁�1⁄2���������	-13.6963
▁�����޲��	-13.6966
▁���£�������	-13.6972
�����񣡿��	-13.6981
�̹	-13.6985
���������⿪	-13.6991
�����¡�����	-13.6993
�˭���	-13.6994
����̣�����	-13.7
����������	-13.7005
������޷���	-13.7012
˽��������������	-13.7014
���󣬳��������	-13.7032
�����׸	-13.704
���������￴	-13.7041
��;�	-13.7052
���׵��	-13.7053
�˽�ʹ����	-13.7055
�����󾭣�	-13.7059
������������	-13.7062
▁�����˷	-13.7095
���̶����������	-13.7096
�����޸�����	-13.7098
�·���������	-13.7101
��ˮ���񸮡���������	-13.7108
�����������	-13.7114
̺���	-13.7116
�����3��	-13.7118
��ͥ����	-13.7119
ࡣ����	-13.7138
��ͤͤ����	-13.7148
·������������	-13.7176
©��	-13.7179
�������˰�	-13.7181
�����˾�������	-13.7184
�������߼���	-13.7184
����ͭ�	-13.7197
▁����׷�	-13.7198
Dzƶ	-13.7199
�°˽�	-13.7199
̨�	-13.7203
񣬵���������	-13.7206
�޹��	-13.7207
˰��������	-13.7215
޵��������	-13.722
��˳����	-13.723
��������£����	-13.7231
������˲���	-13.7237
�������������	-13.724
򣬹�	-13.726
�˸��������	-13.7272
�������˳�	-13.728
˺���	-13.7285
���������£�����	-13.7286
����˭	-13.7287
����⹫	-13.7295
▁��·����������	-13.7298
▁����͸���	-13.7299
����͸�����	-13.7304
▁˼����	-13.7306
����˰�����	-13.7308
�����޵������	-13.7309
�����󴦣���	-13.7311
�������ʹ�	-13.7312
��·���������	-13.7322
�¶�����������	-13.7323
���̣�������	-13.7325
����°��	-13.7359
�������̽	-13.7363
���������˽�����	-13.7366
�𹿰���	-13.7366
���׽��	-13.7392
�⹫���	-13.7401
��̰˽�������	-13.7403
������ͨ���	-13.7406
▁����ˮ����	-13.7433
߻�����	-13.7437
����������߽	-13.7438
�ͤ����	-13.744
���󣬿�����	-13.7442
׶���	-13.7455
▁�����1⁄2	-13.7474
���ͥ������	-13.7476
����߼�����	-13.7477
�������˩�����	-13.7483
▁������ͨ������	-13.7484
���߼�����	-13.7493
�ͭ�����	-13.7493
�������͹��	-13.7496
�������÷��	-13.7496
�̲�̶��	-13.75
▁�·��	-13.75
����޺��������	-13.7501
�˶��������	-13.7503
���˹������	-13.7504
����£��������	-13.7519
�񣬲	-13.7524
����׷��	-13.7548
̧�������	-13.7548
▁��˾�	-13.7554
���¥��������	-13.7556
���̰����	-13.757
�򼦶���	-13.7572
���������	-13.7575
�˱�������	-13.7582
�����˥��	-13.7583
��������˱��	-13.7591
�������˼���	-13.7594
�����	-13.7597
����3�����	-13.76
�̺	-13.7601
󣬸���	-13.7633
�̡��	-13.7634
������	-13.7639
▁��˹	-13.7641
▁��԰��	-13.7643
▁�ͣ���	-13.7646
಻���	-13.7663
�಻���	-13.7675
��������	-13.7677
����˩����	-13.7678
�񲻾���	-13.769
�����������	-13.7691
���󣬰���	-13.7696
��_�	-13.7702
�������߾	-13.7709
����¡����	-13.7713
��	-13.7713
������򣬳���	-13.7715
▁���˳�	-13.772
���ͣ������	-13.7724
������ʾ�	-13.7734
������̼�	-13.7736
̢�������	-13.7744
�̲����	-13.7748
����������ͬ��	-13.7753
׼��	-13.7757
�����������	-13.776
̻���	-13.776
�����񣬵����	-13.7761
������̡�	-13.7772
�������˺��	-13.7776
�1⁄4���	-13.7779
�����¿�	-13.779
�������������	-13.7792
�����	-13.7794
����	-13.78
������΢	-13.7801
▁�����������¡�	-13.7816
񣬳���	-13.7824
̷�������	-13.7826
��±���	-13.7838
�����޺	-13.7851
˶����	-13.7856
���󣬴������	-13.7857
������̴�	-13.7874
�ͨ�����	-13.7882
���������󾭡���	-13.7886
ͬ	-13.7891
˵���˽����	-13.7894
�ͨ���󣬰�	-13.7898
▁�˼����	-13.7904
������̦޺���	-13.7905
����ͬ�˽	-13.7907
�������˿	-13.7917
���޳�����	-13.7923
�˺󻼣�	-13.7934
▁����˭�������	-13.7935
�򣬳����	-13.795
�������	-13.7958
▁��ͯ������	-13.7962
���˺���	-13.7963
���޷�������	-13.7963
�1⁄4�	-13.797
����������̴	-13.7973
▁��������·	-13.7989
���·;����	-13.7993
��񣡡�����	-13.8014
����̫�����	-13.8022
▁�˺���	-13.8025
�÷�����	-13.803
���1⁄2���	-13.8035
������˥��������	-13.8035
��������ʿ��	-13.8036
▁��̤���	-13.8038
����׾���	-13.8041
����ˮ�������	-13.8043
▁�����˰	-13.8055
▁��̧��	-13.8059
��˼�ׯ	-13.8074
▁��˼����	-13.8095
ͣ������ͣ�	-13.8095
��޵������	-13.8097
������׹�����	-13.8111
�����׺���	-13.8117
�������˽�˵����	-13.8121
¡����߼��	-13.8139
����������	-13.815
����೤�	-13.8152
�׾���	-13.8173
��⥡�	-13.8186
�����������	-13.8188
��ͤ	-13.8196
̿����	-13.8228
��̨�����	-13.8231
̨���������	-13.8232
�������̻���	-13.8238
������������£��	-13.8242
▁�����˾��	-13.825
▁ׯ������	-13.825
�����������ࡣ	-13.8275
�˵��������������	-13.8296
ȥǰ	-13.8297
▁ץ	-13.8298
���������鿱����	-13.83
�󣬹�	-13.8306
���̶����	-13.8312
�ͣ��������	-13.8323
��������	-13.8345
���̣������	-13.836
�1⁄4�����	-13.8362
����	-13.837
�޴��������	-13.8378
�᲻������������	-13.8389
▁ͯ������	-13.8417
▁����ʿ��	-13.8435
▁���׽	-13.8446
�����ʿ�����	-13.8446
�˻�����	-13.8464
���񣡡�����	-13.8467
̨����	-13.8468
▁���̣���	-13.8468
�����̧�	-13.8468
𵤣������	-13.8483
񣬼�����	-13.8494
������˿���	-13.8496
��󴦣������	-13.8506
▁������������ʹ	-13.8516
������̥����	-13.8526
����	-13.8531
���˱���������	-13.8531
����񣬸���	-13.8566
���������»	-13.8589
����¥�£�������	-13.8592
󣬷�����	-13.8595
���̽������	-13.8604
�������˼����	-13.8617
ȡʮ	-13.8618
޶���	-13.8643
��������ˮ����	-13.8645
�������¡�	-13.8657
�����޶	-13.8659
�˻��������	-13.8659
▁����ʿ����	-13.8673
���̻��������	-13.8674
▁���׽��	-13.8692
�����󣬰���	-13.8693
�����������	-13.8702
�������	-13.8702
̣	-13.8704
���˭���	-13.8705
�����÷	-13.8713
�����޸�	-13.8715
▁�����˼��	-13.8719
▁����̩	-13.8721
�����������	-13.8726
¶�������	-13.8728
߿����	-13.8741
�����̾������	-13.8742
񣬹������	-13.8746
▁���˵���������	-13.8753
�£������������	-13.8755
���������˽���	-13.8762
������˺�	-13.8762
����������	-13.8771
���������޲��	-13.8777
���񣬷����	-13.8778
����˵������ˮ�	-13.8779
˼��������	-13.8782
����ʹ������	-13.8788
�������󣬾������	-13.8794
���׹�����	-13.8802
�¥̨������	-13.8835
�����[��	-13.8847
����޺��	-13.8857
ʹ˽�	-13.8858
▁���̣����	-13.886
▁��˵��������	-13.8861
▁��˼��	-13.8868
▁�������ͣ���	-13.8874
������3⁄4��	-13.8876
˯���������	-13.8884
������������˽�	-13.8885
׶��	-13.8891
▁��¥����	-13.8907
�����׬������	-13.8908
�������˩��	-13.8919
▁ׯ����������	-13.8936
�¡��˽�����	-13.895
򾻺��	-13.8965
�����������	-13.8984
޹	-13.8985
	-13.8988
���̶�	-13.8996
▁�˷���������	-13.8998
򣬺���	-13.8999
��ʹ����ʹ����	-13.9
˰˽�	-13.9006
�ͣͣ��	-13.9011
�����󣬰�������	-13.9011
��3�����	-13.9012
󾪵����������	-13.9018
▁������������˭��	-13.9022
̧����������	-13.903
˲���	-13.9039
�����˧�	-13.9043
▁���߾�����	-13.9053
�󣡿��	-13.9065
��ʽ�	-13.908
򵹣�	-13.9082
▁�׷�����	-13.9083
�̷����	-13.9086
������ʻ	-13.9087
��񡣡�����	-13.9099
񣬹�	-13.9106
▁�����˴���	-13.9108
�����������	-13.9116
�󣬾�	-13.9141
�򽫳�	-13.9154
����ࡣ���	-13.9156
ׯ����	-13.916
�¡����߼��	-13.9164
▁����̧��	-13.9166
�����̦���	-13.9169
�����̾�������	-13.9175
�����˶�����	-13.9175
�1⁄2�����	-13.9177
▁��̨��������	-13.918
��˱�ˮ�����	-13.9186
˴��������	-13.9187
�������������	-13.9189
▁������ͯ�	-13.9202
������������	-13.9209
񷬾��	-13.9219
�¦��	-13.9221
�	-13.9226
ɳʦ	-13.9227
���������˰	-13.9237
������׹����	-13.9246
�����˹�����	-13.9258
���������޺	-13.9276
▁������·������	-13.9277
񣡡�������	-13.9278
��������׺	-13.9279
��������˳��·	-13.9283
��޲�����	-13.9299
���̧���	-13.931
������3�	-13.9314
��̣����	-13.9329
▁������˵�����	-13.9349
������˸���	-13.9355
������˯���	-13.9393
��ʺ�����	-13.9397
�����	-13.9414
�����޷��	-13.9422
����ͦ�	-13.9424
�˺����	-13.9447
���󣬲�	-13.9451
▁�������˶������	-13.9452
���󣬿���������	-13.9452
������͸	-13.9456
�������ͯ	-13.9473
���䷢	-13.9473
𹿰��������	-13.9506
����������	-13.951
¿	-13.9519
��������	-13.9536
�̹������	-13.9539
▁����԰�	-13.9543
���������˴�	-13.9545
▁��������˳���	-13.9552
������¥�����	-13.9568
����1������	-13.9569
˹�������	-13.9572
�������˼��	-13.9576
��������	-13.9579
׽���������	-13.9614
�̵��	-13.9621
�����������	-13.9639
̲�̶�����	-13.9651
����	-13.9666
��������׽����	-13.9692
����˴�����	-13.9699
ʿ�������	-13.9701
�����������	-13.9702
޴�	-13.9707
�໰������	-13.9708
�׷����	-13.9717
񣬿	-13.9729
��÷������	-13.9756
�������������	-13.9765
▁���������˴�����	-13.9767
���������������»	-13.9776
�������ͬ��	-13.9786
޷�	-13.9793
��̽������	-13.9799
�򣬻����	-13.9804
▁˭����������	-13.9806
���	-13.9807
���������	-13.9815
���׮��	-13.9815
�󣬻�����	-13.9822
���᲻����	-13.9822
��������˸���	-13.9825
��𴦣�����	-13.9858
�󣬷	-13.9861
��ʼ���	-13.9865
���������	-13.9867
����������˺�	-13.9868
������޼���	-13.987
��׼�����	-13.988
▁��̨����	-13.9885
ͯ	-13.9886
���಻��	-13.9895
���������̲�	-13.9904
������������ˮ�	-13.9912
ͨ�������	-13.9942
��԰����	-13.9947
����޼���	-13.9964
2�������	-14.0016
˯�£����	-14.0028
���˴����	-14.0041
▁�����˲��	-14.0041
೤	-14.0042
����͡��	-14.0045
�������𹿰��	-14.0046
��������������£�	-14.005
�����2���	-14.0051
�������ʹ����ͨ��	-14.0054
������̻�	-14.0054
������̿��	-14.0058
▁���������˼���	-14.0058
��͹	-14.0064
�2	-14.0078
̾�ʿ	-14.0082
������£��������	-14.0084
��3⁄4	-14.0099
�޹����	-14.0105
̹	-14.014
▁���������߼�	-14.0149
�󣬿���	-14.0151
�಻�	-14.0162
�̹�	-14.0167
▁���˺���	-14.0185
ͬ��������	-14.0197
�������	-14.0209
���޵�����	-14.0209
ͭ����	-14.0214
��������������	-14.0229
ˮ���������	-14.0231
�ׯ��	-14.0233
�����	-14.0235
򽫳���	-14.0243
�����ͣ����	-14.0252
���󾭣����	-14.026
�����˵����������	-14.0263
��������2	-14.027
���������˻�	-14.0272
�̲���	-14.0284
�������˱���	-14.0285
��̽�����	-14.0305
�̫������	-14.0315
�󣬴��	-14.0324
�񽫡���	-14.0329
�������˸���	-14.0332
������˰��	-14.034
������	-14.0346
��˰�����	-14.0347
�̺�	-14.0368
��	-14.037
���������޽��	-14.0378
���̨������	-14.0379
▁�˸��������	-14.0394
񣿡���	-14.0395
�򣬿�	-14.0403
�󣬸���	-14.042
▁���������	-14.0435
�⿪�������	-14.0437
���¡��������	-14.0448
����	-14.0462
�������	-14.0474
����	-14.0476
�󣬽�	-14.0477
������˾��	-14.048
��߻��	-14.0524
▁�˳���	-14.0533
��᲻�����	-14.0548
��������˵������	-14.0549
▁����˳��������	-14.0566
�򾻣������	-14.0571
¡	-14.0574
ͭ������	-14.0588
̰������	-14.0589
̧�����	-14.0592
�����˴����	-14.0597
▁��ͯ����������	-14.06
����߾���	-14.0601
�������������˭�	-14.0602
�������ͯ��������	-14.0623
��׾�	-14.0628
°���	-14.0636
���߼�������	-14.0641
�	-14.0659
��ͦ���������	-14.066
������3⁄4	-14.0666
����̤�	-14.0686
���̰˽	-14.0686
���󣬻�������	-14.0691
������˼�����	-14.0711
��¡�������	-14.0718
򣬺����	-14.0719
����򣡡������	-14.0737
▁���������£�	-14.0743
��̣�������	-14.0743
▁����˵�����	-14.0744
¶�����	-14.0747
▁���������߽�	-14.0751
���������˯	-14.0758
�������̵	-14.076
��޻���	-14.0771
���󹬡�	-14.0772
▁�����������	-14.0773
���������	-14.0775
������«���	-14.0782
�󣬱�����	-14.0789
�߽������	-14.0812
��������ͬ��	-14.0815
�������3⁄4	-14.0835
���������߻	-14.0842
�����̿�	-14.0851
���޴	-14.0857
˼�������	-14.0857
���˿��	-14.0869
��ͬ�������	-14.0903
�������޵	-14.0909
�»�°���	-14.0916
������޼��	-14.0932
��������ͣ	-14.0938
򣬺	-14.0951
����˺���	-14.0951
��������򣬵��	-14.0961
���󣬱��	-14.0978
󡣵�	-14.0981
������˻	-14.0992
������޿	-14.1011
�򡣡�����	-14.1014
�������¡��	-14.1029
����������˯	-14.1029
▁�������˴	-14.1034
�������1�	-14.1035
�˱������	-14.104
1⁄2������	-14.105
�����ͬ���	-14.1059
��»���	-14.1068
���˭��������	-14.1076
��	-14.1081
����������˽�	-14.1094
�����󣬸���	-14.1105
���̻1	-14.113
������̾	-14.1157
�������������	-14.1161
�������˼���1⁄2	-14.1187
�������׼�	-14.1188
▁��������ʹ	-14.1194
�򣬼��	-14.1195
����ˮ��������	-14.121
�������	-14.1213
�������׷	-14.1224
���߾���	-14.1239
°����	-14.1243
⡣̫	-14.1253
���������˸	-14.1256
�׻�������	-14.1261
��±��������	-14.1285
��������������˵�	-14.1294
�����	-14.1304
��	-14.1306
����׵���	-14.1325
񵽴	-14.1345
�«������	-14.1359
�̦�����	-14.1363
��̣����	-14.1364
����׵�����	-14.1366
��������	-14.137
����ͬ�����	-14.137
˽��󾪵�������	-14.1378
�������̸	-14.1388
˰�������	-14.1397
���°�	-14.1421
▁������ͬ�	-14.1422
�����3⁄4��	-14.1428
̬������	-14.143
Ҿһ	-14.1431
���޹���	-14.1451
���ׯ�����	-14.1459
�������׼���	-14.1466
��˹����	-14.1473
▁��·������	-14.1483
ɦȡ	-14.1485
�����˯��	-14.1493
▁������÷��	-14.1494
▁�˺����	-14.1496
���ͥ	-14.1506
������	-14.1507
3⁄4��	-14.1509
▁���˱����	-14.1518
▁Ħ	-14.152
����������ͬ�	-14.1538
_��	-14.1545
��𹿰��	-14.1545
±������������	-14.1547
�����������	-14.1559
����������	-14.1561
��¥���	-14.1563
▁��׽���	-14.1568
󣬲������	-14.157
����񡣡����	-14.1571
��˷����	-14.1589
����·���������	-14.1593
�����	-14.1627
����̶����������	-14.1636
������򾻣�����	-14.1639
▁��������·�	-14.1649
���̺��	-14.1658
���������󾭡�	-14.1659
������˥��	-14.166
�������	-14.1661
▁���˳��	-14.1671
����ͯ���	-14.1678
��׽�����	-14.1686
�������ʿ	-14.1688
�׼����	-14.169
▁�������˽���	-14.1705
▁���������˽����	-14.1734
߻��	-14.1735
����������¡���	-14.1743
�ͨ�������	-14.1753
�����¿	-14.1754
�����~�	-14.1756
▁��������ʹ��	-14.1756
�����������	-14.1759
»�	-14.176
������߽���	-14.1761
������򾻵�����	-14.1762
˽�ʹ	-14.1764
�������޽�	-14.1771
���������˲��	-14.1775
�������̿��	-14.1787
鿱�	-14.1792
▁̄�������	-14.18
�󣬶������	-14.1813
���;�	-14.1817
��������ʼ�	-14.1817
���̰	-14.1822
�޳���������	-14.1828
�ͬ��ͬ�����	-14.183
��������������	-14.1834
▁��ͨ����	-14.1838
�����	-14.1838
�	-14.185
𵤣�����	-14.1853
�������˭�	-14.1856
����̿	-14.1857
񰰣�����	-14.1867
����˭�����	-14.1874
▁������������	-14.1891
�������÷�	-14.1892
▁��̫���	-14.1895
����������׺	-14.1899
������̨	-14.19
¡��˽�	-14.1902
̾	-14.1911
׾����	-14.1922
��������˸�	-14.1927
̴	-14.1936
����̴���	-14.1937
�������ʼ����	-14.1946
��������׹�����	-14.1954
׿�	-14.1967
˰�������	-14.1969
׺�������	-14.197
��󾭡�����	-14.1992
���̣��������	-14.2007
���⹫	-14.2014
��߻�����	-14.202
�ͤ��	-14.2035
�׶�	-14.2065
��˳��·���	-14.2066
�����̫����	-14.2073
���������΢��	-14.2083
�����޹����	-14.209
▁¥����	-14.2095
������߾������	-14.211
�����3���	-14.2123
��޹��	-14.2126
��ʻ�����	-14.2145
▁�������������	-14.2157
���󣬶����������	-14.2158
▁�ͣ����	-14.2167
������	-14.2168
▁����ͨ�	-14.2175
̡��������	-14.2178
��§���������	-14.2182
�����	-14.2202
��1���	-14.2203
�׹����	-14.221
�������̴�	-14.2215
����׮��	-14.2222
����˩�	-14.2229
������׼��	-14.223
▁���߾���������	-14.2236
����׽���	-14.2245
▁����̧���	-14.2245
��������˽�������	-14.2246
����ͬ����	-14.2253
󣬰��	-14.2278
޻��	-14.2282
󣬸������	-14.229
���������԰	-14.2296
▁����������˵��	-14.2297
���̶���	-14.2299
���������˯��	-14.2303
���׸������	-14.2307
�����⻹	-14.2307
�ͨ��������	-14.231
�������̸��	-14.2343
▁�������¡�	-14.2345
�����������˽�	-14.2349
��׶	-14.2353
�����𹿰���	-14.237
▁���°��	-14.238
����𻰣���	-14.2385
��̨������	-14.2386
�������޼�	-14.2393
�����������	-14.2408
����1⁄4�	-14.2419
▁˯����	-14.2429
�����������	-14.2431
ͣһ	-14.2436
��������͡�	-14.2467
̸	-14.2489
������԰��	-14.2496
��΢΢	-14.2521
�˳���������	-14.2532
��°����	-14.2545
˽�������������	-14.2556
�����ͨ���	-14.2559
����˯�����	-14.2572
������,	-14.2617
����̶�	-14.2641
����޴���	-14.2656
���3⁄4�	-14.2668
��̰�����	-14.2682
̶���	-14.2683
��1������	-14.2687
󡣡��	-14.2705
������߼�����	-14.2722
����̷������	-14.2732
���������	-14.2745
3���	-14.2754
�˿���������	-14.2764
▁������˵������	-14.2765
��������	-14.2783
�޸�ˮ���¡���	-14.2792
▁�����������	-14.2798
▁���˷���	-14.2799
▁���¡�������	-14.2801
�̴����	-14.2808
��󣬽���	-14.2813
����������1�	-14.2831
��������	-14.2836
�̨��������	-14.2842
������׾	-14.2846
������;	-14.2851
̰˽������	-14.2862
�������	-14.2872
΢������	-14.2888
��������޸	-14.2889
��������˿����	-14.2893
��������߻��	-14.2899
����¡������	-14.2911
����򣡡��	-14.2913
▁����������ʿ��	-14.2924
��˺󻼣�	-14.2934
�������޴�����	-14.2938
���̹����	-14.2939
▁������ͣ�	-14.2956
���1⁄4�	-14.2967
�˭������	-14.2977
▁�����	-14.298
����˽��	-14.2994
���˸����	-14.2997
▁�����˵	-14.3019
�˾������	-14.3026
���������1⁄2�	-14.3029
�޺���	-14.303
����·��������	-14.304
�������ˮ���	-14.3043
���������˭�	-14.3045
���ʹ˽�	-14.3057
��������������	-14.3061
���޿	-14.3073
����˯����	-14.308
�����ͭ	-14.3082
޼	-14.3092
��������޻	-14.3096
ͦ��	-14.3122
��������«����	-14.3146
�������������	-14.3158
��̤�����	-14.3163
���������߽���	-14.3204
▁�����˲���	-14.3228
�������̳���	-14.3228
���̸��	-14.3237
�˱�ˮ�����	-14.3245
�������͡���	-14.3248
���������߿�	-14.3254
����׻�	-14.3265
���¶������	-14.3294
▁��̨	-14.33
���ͨ�����	-14.33
������§	-14.3302
𹿣��������	-14.3305
���������˹	-14.3314
▁��˵����������	-14.3329
�ˮ���񸮡���������	-14.335
�����	-14.3356
󣬴��	-14.3364
������͸��	-14.3377
˭����˵�	-14.3393
����ʿ˵�����	-14.3405
▁������ʹ�����	-14.3406
▁�������˹�	-14.3425
��������˵�������	-14.343
������ͣ���	-14.3437
ͭ��	-14.3439
ʼ��������	-14.3439
��⥡����	-14.3441
���̶��������	-14.3444
�޺�����	-14.3447
▁�������	-14.3452
���̽��������	-14.3456
�������׽����	-14.3458
����̽���	-14.3462
��������������	-14.3487
�����±��	-14.3491
����߾�����������	-14.3529
▁ˮ�������	-14.3529
����޺�����	-14.355
򣬳��	-14.3557
�˯�£���	-14.3559
�����������»	-14.356
��׶�	-14.3561
˭��	-14.3567
������ʹ����	-14.3581
��������	-14.3592
����̧����	-14.3601
͡���	-14.3622
��׾��	-14.364
����ʿ˵��	-14.364
��ʺ�	-14.3647
���׻���	-14.3648
����������ͣ�	-14.3648
������	-14.3654
����߼��������	-14.366
�����¥̨�����	-14.3667
3�	-14.369
�򾻣��������	-14.3691
�̹���	-14.3691
������׻	-14.3703
˵�����˽�����	-14.3729
�񣬾�	-14.374
����̲���	-14.3743
����������ࡣ	-14.3759
�׽������	-14.3777
������������	-14.3781
ͦ�����	-14.3785
˿���������	-14.3798
���߽��	-14.3802
�����ͣ�����	-14.3806
▁�˴��������	-14.3813
�̣��������	-14.3813
����������˸�	-14.3815
����¥��	-14.3824
����̫�׽��	-14.3837
񣬲������	-14.3842
▁�߽������������	-14.3854
�˳�������	-14.3856
���޺������	-14.3873
�������	-14.3876
�����̶�������	-14.3894
����ʹ��������	-14.3896
���·��������	-14.3904
ʹ��������������	-14.3906
▁��»�	-14.3914
▁ɴ	-14.3917
���������ͨ�	-14.3926
▁���������޵	-14.393
��񽫣�������	-14.3931
�����򡣡����	-14.3947
�𻰣���	-14.3975
����1⁄4������	-14.4
���˭�������	-14.4006
��˲����	-14.4007
����ˮ������	-14.4019
�������˾	-14.4021
����˳������	-14.4042
���[����	-14.4049
���̤����	-14.4055
▁�������ͣ�����	-14.4062
¿�����	-14.4065
�����̶���������	-14.4077
�������޿	-14.4086
������˽����	-14.4094
��	-14.41
��������ˮ���	-14.4123
򣬳���	-14.414
�����������	-14.4144
˹����	-14.4148
̶����	-14.4149
��񣬵���	-14.4152
����������ʹ	-14.4158
����󣬾��	-14.4187
׶�����	-14.4219
���˱����	-14.4239
���׮	-14.424
���������˱�	-14.4243
������˷���	-14.4251
����¥̨����	-14.4265
��˾�������	-14.4277
���������̫��	-14.4285
�΢�����	-14.4321
�˯������	-14.4325
��˶�������	-14.4328
▁���¡����������	-14.4335
���������ͨ����	-14.4339
�����԰	-14.4349
˽�˵����	-14.435
˺�������	-14.4394
�󣬾��	-14.44
�󣬱�	-14.441
����׮	-14.4414
������˽�����	-14.4468
�������˱������	-14.4472
򡣰�	-14.4495
򣬻����	-14.4506
����������	-14.4513
���������˶	-14.4527
˹��������	-14.4562
����������	-14.4574
�ࡣ����	-14.4582
�̺�������	-14.46
����˭�������	-14.4601
▁�����¡���	-14.4602
�������׸��	-14.4639
▁������ͬ��	-14.4641
�˿������	-14.4642
���̫������	-14.4645
�ʿ�·����	-14.465
������߾����	-14.4652
�������˰��	-14.4664
�໨	-14.4665
��������������	-14.4677
����˷�	-14.4686
▁���ͣ�������	-14.4689
��񡢰	-14.47
����÷����	-14.4707
����׹�����	-14.4716
�_��	-14.4721
��¡��������	-14.4724
��߽���������	-14.4744
��˳���������	-14.4778
������̨��	-14.479
��΢�	-14.4792
�����©��	-14.4793
������׷�	-14.4799
���˽����	-14.481
▁���ʹ�����	-14.4817
�����޸	-14.484
�������	-14.4855
▁�����£����	-14.4876
������޲�	-14.4876
�������	-14.4877
����	-14.4877
𾦣����	-14.4913
��߽�����	-14.4922
������˿�����	-14.4923
▁�˶�������	-14.493
�����̣�������	-14.4933
���÷���	-14.4935
���̲��	-14.4941
����������󣬲�	-14.497
����޹��	-14.4988
����̵�	-14.4998
ͬ�������	-14.503
޷����	-14.5031
�������������˽	-14.5042
����͸����	-14.5057
�����˴������	-14.5078
��¥̨������	-14.5084
�����˵���������	-14.5093
�˱����	-14.5138
¥�����	-14.5151
��2�����	-14.5175
ͨ���󣬰�	-14.5185
��˲�����	-14.5185
�򲻵�	-14.5207
▁���߿������	-14.5233
����̺���	-14.5233
��͹����������	-14.5243
��򣬶���	-14.5247
���¶����	-14.5286
▁�������£�	-14.5293
�᣿���	-14.5298
▁�׷������	-14.5305
�˽�����������	-14.5318
�޽��	-14.5321
�񲻰������	-14.5328
��͸����	-14.534
�׼���	-14.5344
����������	-14.5353
�����޼����	-14.5357
���	-14.5371
������������£���	-14.5396
���޲����	-14.5398
������˺���	-14.5408
�̾�����	-14.5409
���̸�����	-14.541
▁�߼���	-14.5418
󣬷����	-14.5422
�����޶���	-14.5457
▁�˰�����	-14.5462
̷����	-14.5471
СЩ	-14.5479
���಻���	-14.5495
���˶�������	-14.5498
��˶���������	-14.5508
����������£��	-14.5517
▁�����������1�	-14.5529
�����������԰�	-14.5571
��1����	-14.5572
��������߽���	-14.5582
��3��������	-14.5588
▁��ʹ���	-14.5599
���͹������	-14.5604
�·����������	-14.5614
�����ͣ�������	-14.5616
��˽����˵��������	-14.5622
�«��������	-14.5639
�����ʹ����ͨ��	-14.564
�׺�����	-14.5641
�����˺���	-14.5646
�򣬺	-14.5657
����ʼ���	-14.5669
������̸���	-14.5673
��������̨	-14.5709
����1�������	-14.5712
�����÷�	-14.5718
޺��	-14.5721
���1⁄4���	-14.5727
���������������	-14.5755
�����̽�	-14.5781
����˱������	-14.579
΢΢����	-14.5795
��˯���������	-14.5812
ʹ������������	-14.5817
��񽫣���	-14.5836
ʺ������	-14.5841
�����΢����	-14.5846
▁�˾����	-14.5855
�����������׷	-14.5856
��ׯ��	-14.5869
������˯�����	-14.5871
�񣿡��	-14.5892
��������1�	-14.5898
���񣬳�	-14.5916
▁�������£����	-14.5925
������������	-14.5931
���;����	-14.5948
��������1��	-14.5953
˱���������	-14.5961
����2����	-14.5974
������ͣ����	-14.5986
����������	-14.6001
��������˽�����	-14.6001
��̹����	-14.6035
������̵�	-14.6048
��������׿	-14.6062
̳���	-14.6073
��˸�����	-14.6073
��������޸�	-14.6085
�󾪵��������	-14.6095
�˴��¡������	-14.6103
���������¿�	-14.6104
����������	-14.6105
��������߼	-14.6114
����׵�	-14.6116
������£�������	-14.6117
����߼������	-14.6119
򣬴��������	-14.6138
˭����	-14.6141
��ࡣ���	-14.6141
׺	-14.6147
▁����¥��������	-14.6166
▁�����˾������	-14.6166
������˯��	-14.6173
▁��������˵�����	-14.618
�񣬶	-14.6196
󳤡	-14.6208
���˽��	-14.622
�������𹿰���	-14.6226
���˷�����	-14.6236
��������·�������	-14.6238
▁ͨ������	-14.6246
�����������	-14.6252
�򣬵�	-14.6256
���¶�������	-14.6264
������������̫�	-14.6295
������׸	-14.6333
����¬��	-14.6334
��������߼���	-14.634
���������˽��	-14.6347
̳�����������	-14.6375
����̣�������	-14.6392
�������޴���	-14.6409
������	-14.6411
�����̤	-14.6431
͹��	-14.644
������˴	-14.6471
�������������	-14.6493
����±	-14.6495
���	-14.6529
����ʼ����	-14.6553
���������	-14.656
�������˾�	-14.6563
�����������	-14.6565
������˵���������	-14.6582
����������˭	-14.6617
�ʿ��������	-14.6633
������᲻����	-14.6671
▁���̣�����	-14.6701
�����񣿡����	-14.6713
��΢�������	-14.6714
���׶���	-14.6722
▁���£���������	-14.6736
▁�����ʺ�	-14.6752
߾�	-14.6763
▁��������˯�	-14.6764
̸��������	-14.6767
��������˸��	-14.677
�̵���	-14.6781
�໨���	-14.6796
���󾭣�����	-14.6819
�������	-14.682
������	-14.6839
	-14.6843
������������˽	-14.6887
�˴�����	-14.6945
��޷���������	-14.695
��������˴	-14.6966
����̻	-14.6966
��������󾪵���	-14.6967
˴���������	-14.6975
߽���	-14.6981
�⹫	-14.6992
��̡��������	-14.7001
�������ࡣ����	-14.7007
▁�߽��	-14.7008
���������	-14.7017
󾪣��	-14.7026
ͭ�����	-14.7033
��ˮ����������	-14.7043
▁����·������	-14.7068
±�	-14.707
���1��������	-14.7078
����⹫��	-14.7105
▁��˯������	-14.7145
����ׯ�����	-14.7146
�����������߿	-14.7146
▁�޺�	-14.7162
▁��������	-14.7163
�񣬿	-14.7175
��������˾	-14.7193
�������͡����	-14.723
������˽��������	-14.7248
▁˵������	-14.726
¥�������	-14.7272
�������������	-14.7276
▁�����̲��	-14.7277
ׯ�����	-14.7287
��ˮ��ˮ�	-14.7287
��£�����������	-14.7306
�����޺������	-14.731
�͹��	-14.7311
▁�����ʹ�������	-14.7322
������������	-14.7323
������������ͣ�	-14.7331
�ͧ����	-14.7336
̰˽�	-14.7342
�����𹿰��������	-14.7368
����׷�����	-14.737
�°���	-14.7377
��׷������	-14.7411
��������������	-14.7412
▁������·�������	-14.7414
��£����������	-14.7441
�𹿰��	-14.745
�����	-14.7451
▁�������˽�������	-14.7468
��������˧	-14.7474
�2�������	-14.7481
▁�޳��	-14.7483
��������͸��	-14.7487
����������ͭ	-14.7501
Īȥ	-14.7503
��������	-14.7505
󣬹	-14.7513
����׾�	-14.7522
���˳���������	-14.7557
����˰˽�����	-14.7557
▁��������	-14.7609
˱�ˮ�����	-14.7611
���߼������	-14.7615
▁�����˷��	-14.7625
▁�������	-14.7627
�����̵	-14.7628
˵���������������	-14.7629
����̧���	-14.7653
޴���	-14.7707
�������	-14.7711
������˭��	-14.7729
���������޻	-14.7733
����3����	-14.7742
▁���˽�����������	-14.7746
����̹��	-14.7778
����̺�������	-14.7805
�˺������	-14.7848
�������«	-14.7854
��߿	-14.7859
�������	-14.7876
������߼��	-14.7876
▁�����̵��	-14.7898
�ʾ�	-14.7911
͸������	-14.7931
�����߾����	-14.7932
����������	-14.7942
▁�ʹ����	-14.796
������׿	-14.7997
�������������	-14.8004
��������	-14.8012
����ʿ�����	-14.8025
�񲻾����	-14.8039
������޳���	-14.8039
�����������	-14.8048
�������̧��	-14.8055
��1⁄4�	-14.807
���	-14.8071
▁������̫����	-14.8076
▁�������˽�����	-14.8082
�������	-14.8092
�����	-14.8108
�����������߽	-14.8117
��͡�������	-14.8129
������������޹	-14.8133
�׾�	-14.8136
��������˺�	-14.814
�򣬱�	-14.8143
������͸�	-14.8148
��������˩����	-14.8158
����2���	-14.8162
�������˶	-14.8164
��޿����	-14.8183
�������ͨ��	-14.8187
�����ͯ������	-14.8192
�������̸�	-14.8202
�������׺	-14.823
���͸	-14.8238
▁ͯ�������	-14.8243
���������˸�	-14.826
�̲�����	-14.8263
�����������·�	-14.8296
����޸	-14.8297
߼	-14.8297
����¥̨���	-14.8329
�������޴����	-14.8335
��಻	-14.8338
�������������˹��	-14.8376
������˱���	-14.8377
�����ʹ�������	-14.8379
̿������	-14.84
߽����	-14.8405
������	-14.8422
���׸��	-14.8451
�������׵����	-14.8454
���˸������	-14.8474
������̣������	-14.8517
▁��������ʹ���	-14.8532
����������1	-14.8532
���������̽�	-14.8557
����,����	-14.8565
▁������ͬ����	-14.8576
̧�����������	-14.8586
�����˸��	-14.8612
�������׹	-14.8651
▁�˼�����	-14.8658
�����������	-14.8679
��°������	-14.8682
���������·�����	-14.8688
�������޹�	-14.8691
����˭���	-14.871
������������ͨ�	-14.8726
▁���˸��������	-14.8746
�������˸������	-14.8765
��1⁄2���	-14.8765
����ͯ����	-14.8771
�����2�	-14.8803
�����̡���	-14.8803
▁¥����������	-14.8808
��ࡣ����	-14.8812
�����̲���	-14.8829
������ʺ����	-14.8833
�����͸�����	-14.8834
�������ˮ������	-14.8839
󾭹	-14.8855
󼯾	-14.8856
󼯡	-14.8857
󻼡	-14.8858
󻹲	-14.8859
▁���˵�����	-14.8859
󻰡	-14.886
󻧣	-14.8861
󺦣	-14.8862
󺦡	-14.8863
󹬡	-14.8864
󹧣	-14.8865
󷽣	-14.8866
󷹡	-14.8867
�������	-14.8867
󵶣	-14.8868
󵨷	-14.8869
����	-14.8869
󴵴	-14.887
󴦵	-14.8871
󱯵	-14.8872
󱯣	-14.8873
󣿡	-14.8874
󣡿	-14.8875
󡣽	-14.8876
�������1⁄2��	-14.8876
󡣼	-14.8877
󡣻	-14.8878
󡣹	-14.8879
󡣷	-14.888
󡣰	-14.8881
󡢽	-14.8882
򾻶	-14.8883
򾻰	-14.8884
򾻡	-14.8885
򾣬	-14.8886
򼦶	-14.8887
򼣬	-14.8888
򸾡	-14.8889
򵹡	-14.889
򵨱	-14.8891
򳤰	-14.8892
򰡣	-14.8893
򣬼	-14.8894
򣬷	-14.8895
򡣺	-14.8896
򡣳	-14.8897
򡣱	-14.8898
񽫽	-14.8899
񽫡	-14.89
񹭡	-14.8901
񹦡	-14.8902
񸮡	-14.8903
񷬾	-14.8904
񷨣	-14.8905
¬	-14.8905
񶳣	-14.8906
񵽱	-14.8907
��������1⁄4�	-14.8907
񳯵	-14.8908
񲻿	-14.8909
񲻼	-14.891
񲻹	-14.8911
񲻰	-14.8912
񱭣	-14.8913
񰲣	-14.8914
񣻲	-14.8915
񡣽	-14.8916
񡣻	-14.8917
񡣺	-14.8918
񡣹	-14.8919
񡣶	-14.892
񡣵	-14.8921
񡣳	-14.8922
񡣰	-14.8923
�1������	-14.8923
񡢶	-14.8924
񡢰	-14.8925
▁���̲��	-14.8925
𿴾	-14.8926
𾭡	-14.8927
𻰡	-14.8928
𹭻	-14.8929
𶥷	-14.893
𵽿	-14.8931
𵶱	-14.8932
𴦿	-14.8933
𲻸	-14.8934
𲻴	-14.8935
𱦡	-14.8936
﹬	-14.8937
﷢	-14.8938
	-14.8939
	-14.894
	-14.8941
	-14.8942
	-14.8943
	-14.8944
	-14.8945
	-14.8946
	-14.8947
	-14.8948
	-14.8949
	-14.895
	-14.8951
	-14.8952
	-14.8953
	-14.8954
䷽	-14.8955
䷲	-14.8956
䷨	-14.8957
⻾	-14.8958
⹦	-14.8959
⵺	-14.896
⵶	-14.8961
⴫	-14.8962
⳸	-14.8963
⳵	-14.8964
᷽	-14.8965
ᷢ	-14.8966
࿪	-14.8967
໢	-14.8968
๲	-14.8969
๩	-14.897
ٍ	-14.8971
˨	-14.8972
󿪣	-14.8973
󺣳	-14.8974
󸹬	-14.8975
󷿣	-14.8976
󷹣	-14.8977
󵨵	-14.8978
󲽣	-14.8979
󲻴	-14.898
󰡣	-14.8981
󣡽	-14.8982
󣡡	-14.8983
󡣳	-14.8984
򿪣	-14.8985
򾻲	-14.8986
�󣬻����������	-14.8987
򶫱	-14.8987
򶫣	-14.8988
�����̣������	-14.8988
򴬣	-14.8989
򴦣	-14.899
򲻼	-14.8991
򲻵	-14.8992
򲻳	-14.8993
򣬸	-14.8994
򡣼	-14.8995
򡣵	-14.8996
򡣴	-14.8997
򡣲	-14.8998
񾪣	-14.8999
񵽻	-14.9
񲻸	-14.9001
񱣻	-14.9002
𾦻	-14.9003
𹿡	-14.9004
𸮣	-14.9005
𲻾	-14.9006
𱦣	-14.9007
�����޹���	-14.9007
﻽	-14.9008
﷭	-14.9009
	-14.901
	-14.9011
	-14.9012
	-14.9013
	-14.9014
	-14.9015
	-14.9016
꨽	-14.9017
�����˸�	-14.9018
䷿	-14.9018
䷹	-14.9019
⸡	-14.902
⵹	-14.9021
⵴	-14.9022
⴬	-14.9023
⯣	-14.9024
������ׯ����	-14.9024
ᳪ	-14.9025
࿴	-14.9026
෿	-14.9027
඼	-14.9028
آ	-14.9029
ͩ	-14.903
ͧ	-14.9031
}	-14.9032
^	-14.9033
󽫾	-14.9034
󡣵	-14.9035
󡣴	-14.9036
󡢷	-14.9037
򿪿	-14.9038
򾻺	-14.9039
��ͧ����	-14.9039
򽫳	-14.904
񹦣	-14.9041
񣡳	-14.9042
񡣴	-14.9043
𻰣	-14.9044
𵹣	-14.9045
𲿵	-14.9046
	-14.9047
	-14.9048
	-14.9049
	-14.905
	-14.9051
�������������	-14.9051
⸮	-14.9052
⴦	-14.9053
᷿	-14.9054
᫣	-14.9055
๤	-14.9056
¦	-14.9057
󻼣	-14.9058
󣬼	-14.9059
򾻵	-14.906
򲻹	-14.9061
򣬹	-14.9062
򣬲	-14.9063
򣬰	-14.9064
񣬵���	-14.9064
񣬳	-14.9065
𷨣	-14.9066
𷢣	-14.9067
	-14.9068
	-14.9069
䶶	-14.907
⿴	-14.9071
⯡	-14.9072
⥡	-14.9073
᣻	-14.9074
໨	-14.9075
`	-14.9076
󿪶	-14.9077
󽫣	-14.9078
��¦��	-14.9078
󹬣	-14.9079
󵨣	-14.908
򣬶	-14.9081
�񣻲	-14.9081
򣬳	-14.9082
񲻾	-14.9083
񰰣	-14.9084
񣬻	-14.9085
񣬷	-14.9086
񣬱	-14.9087
񣡿	-14.9088
𹿶	-14.9089
𵤣	-14.909
��������߾���	-14.909
𴦣	-14.9091
	-14.9092
ꣿ	-14.9093
⿤	-14.9094
׭	-14.9095
ͮ	-14.9096
󾪣	-14.9097
󻰣	-14.9098
󺣡	-14.9099
򣬴	-14.91
񣬾	-14.9101
𷨹	-14.9102
	-14.9103
	-14.9104
	-14.9105
	-14.9106
↑	-14.9107
໹	-14.9108
̢	-14.9109
=	-14.911
󾭵	-14.9111
󴦣	-14.9112
󣬵	-14.9113
񣬺	-14.9114
	-14.9115
⹳	-14.9116
໰	-14.9117
~	-14.9118
▁����ͬ����	-14.9118
]	-14.9119
.	-14.912
򣿡	-14.9121
񽫣	-14.9122
ّ	-14.9123
̬	-14.9124
󣬳	-14.9125
򻰣	-14.9126
򣬾	-14.9127
򣬽	-14.9128
򣬱	-14.9129
񣬵	-14.913
񣬴	-14.9131
�����԰���	-14.9131
𹿣	-14.9132
	-14.9133
󣬴	-14.9134
󣬸	-14.9135
򣬵	-14.9136
񣬼	-14.9137
᣿	-14.9138
[	-14.9139
󾭡	-14.914
󣬾	-14.9141
򵹣	-14.9142
񣬽	-14.9143
񣬰	-14.9144
	-14.9145
͢	-14.9146
󡣡	-14.9147
񣡡	-14.9148
	-14.9149
鿱	-14.915
򣡡	-14.9151
񣬸	-14.9152
׬	-14.9153
إ	-14.9154
̦	-14.9155
󺣣	-14.9156
󣬻	-14.9157
𾦣	-14.9158
񣬲	-14.9159
񡣡	-14.916
	-14.9161
˥	-14.9162
󣬰	-14.9163
󣬲	-14.9164
	-14.9165
ˬ	-14.9166
񣿡	-14.9167
⿪	-14.9168
���ʹ���������	-14.9168
׻	-14.9169
	-14.917
򾻣	-14.9171
򡣡	-14.9172
޾	-14.9173
᲻	-14.9174
�����¡������	-14.9174
￴	-14.9175
̩	-14.9176
󾭣	-14.9177
	-14.9178
̺	-14.9179
⹫	-14.918
޽	-14.9181
ͥ	-14.9182
׮	-14.9183
׾	-14.9184
	-14.9185
󾪵	-14.9186
޸	-14.9187
޳	-14.9188
ͅ	-14.9189
޷	-14.919
޶	-14.9191
ۇ	-14.9192
̽	-14.9193
	-14.9194
׼	-14.9195
߾	-14.9196
̶	-14.9197
޲	-14.9198
̻	-14.9199
̄	-14.92
́	-14.9201
߻	-14.9202
޺	-14.9203
𹿰	-14.9204
̡	-14.9205
4	-14.9206
⁄	-14.9207
